the
.
,
a
of
to
in
and
on
's
for
said
that
with
at
as
an
##
by
from
wednesday
tuesday
his
monday
has
thursday
its
is
friday
was
UNK
president
after
will
new
-lrb-
-rrb-
it
``
have
u.s.
government
two
their
''
be
he
sunday
china
world
saturday
over
first
minister
####
year
were
who
here
against
people
more
country
this
police
percent
up
###
officials
are
reported
one
into
united
us
than
million
official
about
state
been
they
but
last
south
foreign
former
international
had
years
not
national
would
three
states
european
when
announced
#
killed
which
out
week
city
dollars
prime
#.#
group
military
billion
iraq
court
day
chinese
next
news
#-#
today
between
bank
her
'
top
war
or
company
prices
security
according
federal
--
down
other
leader
party
oil
stock
american
four
british
could
off
economic
bush
#.##
agency
trade
some
$
union
talks
during
month
cup
local
called
team
central
most
palestinian
five
major
french
market
russian
points
may
all
second
leaders
hong
time
closed
kong
-
russia
months
southern
home
house
province
before
visit
israeli
north
authorities
chief
general
him
political
died
york
least
countries
early
peace
held
end
set
nation
back
help
korea
following
george
office
exchange
ministry
if
nations
east
share
financial
taiwan
northern
election
forces
while
left
nuclear
capital
opposition
health
man
league
ago
african
israel
region
france
economy
presidential
since
no
dollar
night
stocks
high
under
german
largest
killing
days
report
investors
un
open
army
west
take
death
six
higher
won
being
close
_
defense
them
n't
senior
saying
says
troops
rose
global
lower
expected
plans
w.
#,###
iraqi
pakistan
india
elections
meeting
where
media
support
secretary
despite
rights
air
force
including
men
there
campaign
olympic
near
opened
made
third
women
amid
because
republic
asian
germany
attack
through
britain
make
another
she
accused
john
part
iran
leading
agreement
what
hit
public
clinton
win
australia
democratic
street
dealers
corp.
reports
just
plan
took
final
:
work
should
afghanistan
attacks
released
nearly
urged
morning
found
u.n.
parliament
agreed
season
soldiers
victory
africa
border
inc.
began
lead
development
bid
index
trading
thousands
series
service
center
australian
fell
##th
crisis
members
ahead
only
arrested
giant
spokesman
gold
committee
head
can
late
charges
due
program
round
department
coach
island
games
business
across
car
main
council
violence
warned
tour
record
human
beijing
any
shares
efforts
say
europe
##.#
around
whether
markets
recent
case
administration
champion
workers
western
white
arrived
##,###
indian
commission
eu
fire
weekend
deal
wall
children
eastern
obama
possible
key
press
many
injured
quarter
rebels
way
power
still
even
half
mexico
beat
life
system
interest
club
trial
###.##
town
soccer
past
several
game
washington
companies
london
england
drug
industry
nato
march
premier
sri
cooperation
suspected
co.
strong
law
weeks
latest
special
conference
executive
signed
coast
organization
italian
america
relations
shot
without
told
long
growth
###,###
earlier
continued
seven
test
biggest
board
championship
match
dead
congress
gaza
meet
korean
strike
met
##.##
university
summit
race
now
sales
start
do
return
school
launched
chairman
profit
ended
eight
put
prison
so
production
rate
decision
republican
led
future
vietnam
energy
increase
judge
policy
gas
money
ruling
hundreds
association
barack
face
use
rebel
others
pay
net
small
fighting
airport
demand
bomb
italy
newspaper
among
decided
september
senate
taking
aid
how
california
arab
nine
might
release
tournament
reached
television
labor
football
rejected
militants
islamic
further
same
june
##-year-old
free
middle
away
much
body
cut
protest
area
us$
food
price
opening
finance
place
sources
communist
daily
baghdad
vote
services
family
charged
get
bill
zealand
lanka
annual
hospital
sent
stop
own
play
indonesia
go
supreme
los
spanish
de
later
woman
investment
spain
joint
wounded
order
number
hours
michael
showed
member
move
give
weapons
step
private
champions
keep
civil
again
previous
fight
yen
hold
making
control
become
title
armed
times
xinhua
angeles
japan
muslim
suicide
space
afghan
discuss
internet
trying
contract
building
outside
run
plane
turkish
whose
such
confirmed
ban
philippine
victims
station
students
offer
ordered
crimes
pressure
terrorist
star
fund
issue
ties
budget
used
big
computer
seeking
both
show
water
turkey
cricket
sharply
loss
products
rival
scored
palestinians
sea
rates
regional
pakistani
little
issues
like
build
planned
moscow
swiss
groups
euros
aimed
alleged
almost
deadly
did
reserve
players
hopes
total
canada
denied
right
robert
##-##
terrorism
director
lost
tokyo
kosovo
thailand
statistics
philippines
failed
firm
session
jewish
information
detained
effort
river
statement
far
canadian
egypt
sentenced
turned
murder
heavy
earthquake
few
july
known
concerns
rally
vice
came
indonesian
airlines
does
fresh
i
paris
nigeria
must
sector
grand
ethnic
caused
investigation
along
jobs
paul
summer
ii
emergency
brazil
growing
candidate
americans
banking
officers
malaysia
role
call
legal
camp
claimed
areas
technology
debt
level
went
zimbabwe
history
also
launch
coalition
issued
texas
helped
lawyer
started
gains
sign
october
until
bring
battle
change
afternoon
threatened
fired
soon
each
shanghai
missing
expressed
mark
earnings
good
operations
euro
too
process
became
travel
affairs
evening
manager
young
olympics
gulf
maker
proposed
ireland
best
dispute
tamil
spending
illegal
medical
crashed
vladimir
residents
fourth
domestic
well
moved
period
dropped
already
visiting
iranian
hussein
increased
tennis
flu
gave
allow
tax
asked
action
ministers
negotiations
less
post
reform
event
interior
calling
better
measures
refugees
likely
profits
ready
operation
job
movement
forward
japanese
david
al
those
rising
red
officer
education
championships
current
returned
decades
embassy
results
counterpart
georgia
join
road
radio
november
convicted
research
full
king
governor
leave
april
published
controversial
project
san
thai
within
mayor
heart
#,###.##
dozens
kenya
construction
powerful
disease
myanmar
social
parliamentary
truck
ruled
authority
losses
airline
sports
industrial
remained
received
greek
january
&amp;
rise
proposal
overnight
dutch
tiger
toll
recently
concern
carrying
great
declared
brazilian
boost
citizens
drugs
florida
fuel
yet
field
warning
st.
cases
taipei
justice
massive
front
old
insurance
banks
worth
prosecutors
network
buy
site
scheduled
ambassador
irish
guard
claims
line
facing
pope
himself
seized
deputy
putin
running
envoy
worldwide
saddam
condemned
plant
remain
played
behind
aircraft
historic
problems
threat
bay
headquarters
southeast
asia
division
ever
voters
chancellor
you
flights
fifth
going
need
northwest
lebanon
black
supporters
county
strip
working
century
using
data
film
crude
saudi
large
defeat
ground
every
player
homes
short
recovery
named
personal
spent
mexican
teams
find
once
upcoming
taken
real
toward
cabinet
corruption
intelligence
crash
storm
coming
search
august
allegations
parts
bosnian
lawmakers
parties
bombing
stage
starting
hope
allegedly
try
planning
tony
attacked
port
confidence
study
highest
credit
voted
base
scientists
community
clashes
hamas
terror
troubled
egyptian
flight
consumer
bangladesh
alliance
majority
park
raise
gov.
medal
english
tried
conservative
federation
provide
vowed
conflict
break
funds
zambia
suffered
forced
fans
raised
then
december
pacific
mission
colombia
figures
challenge
analysts
####s
mainland
sale
royal
goal
millions
criminal
continue
son
serb
sudan
.##
protests
having
winning
poor
accident
inflation
moving
attempt
got
wife
yuan
housing
dlrs
sweden
reaching
costs
low
diplomatic
stadium
lawyers
beating
agriculture
advanced
ukraine
trip
district
striker
act
##-year
unveiled
businesses
side
begin
advance
train
prevent
explosion
elected
paid
fears
czech
bombings
situation
list
mixed
banned
appeared
fraud
fall
church
catholic
falling
struck
ceremony
currency
representatives
traffic
involving
tensions
training
debate
independence
swedish
selling
filed
attorney
chen
suspended
drop
send
goals
atlanta
formula
experts
greece
bureau
two-day
militant
approved
positive
lebanese
music
care
reduce
cash
reach
together
lawsuit
sell
missile
jail
exports
child
movie
boy
sanctions
winter
climate
welcomed
investigating
average
slightly
immigration
corporate
mass
serious
athens
light
madrid
democrats
ending
defending
governing
taliban
cuba
track
activists
very
straight
immigrants
crucial
safety
calls
switzerland
land
performance
crew
seen
carrier
assembly
gathered
protect
avoid
religious
milan
raising
nigerian
college
bus
competition
bosnia
cyprus
newly
basketball
deaths
improve
pledged
village
draw
girl
commander
jordan
arms
republicans
clear
treaty
hotel
manchester
sen.
environmental
cost
sought
arrest
term
caribbean
boston
candidates
career
rescue
civilians
giving
prosecutor
waters
demanded
independent
finals
promote
form
come
weather
double
chechnya
staff
beginning
blamed
congressional
plunged
arafat
disputed
guerrillas
southwest
malaysian
enough
attend
point
blue
wanted
suspects
leaving
monetary
huge
guilty
resigned
islands
tehran
crackdown
polls
bilateral
jerusalem
push
separatist
syria
committed
tons
broke
driver
involved
cancer
unit
compared
stay
finish
management
jersey
delegation
provincial
wants
organizers
argentina
doctors
crime
february
video
boat
evidence
yugoslavia
sept.
hillary
zone
systems
remains
holding
defeated
living
civilian
protection
unemployment
peacekeeping
bad
host
refused
access
auction
struggling
boosted
conditions
supply
brought
headed
equipment
chemical
festival
yasser
damage
deficit
nepal
seek
create
constitution
democracy
reforms
venezuela
tv
combat
survey
charge
online
rugby
portugal
visited
increasing
believed
scandal
virus
mostly
severe
sold
baseball
projects
passengers
helicopter
outbreak
joined
response
injuring
finally
violent
cars
settlement
offering
spring
art
polish
getting
refugee
posted
potential
employees
sparked
chance
streets
buying
guangdong
looking
important
inside
phone
latin
anniversary
see
letter
no.
developing
decline
cuban
backed
croatia
person
mahmoud
legislation
never
seriously
preparing
room
blair
considering
fifa
source
sharp
sides
operating
changes
strategy
added
promised
deadline
signs
standing
prize
serbia
stopped
expectations
rule
protesters
shooting
richard
programs
drive
playing
willing
motor
cross
want
rocket
figure
plc
families
class
female
mobile
sending
father
boeing
jury
secretary-general
lives
terrorists
patients
minutes
mike
shuttle
request
extend
buildings
#.###
transport
rare
internal
classic
commercial
thanks
prisoners
finland
prominent
motors
offered
neighboring
cpc
block
expand
traders
changed
arabia
nba
review
themselves
serbs
bringing
replace
offensive
needed
euro#
value
institute
course
problem
worst
worries
demonstrators
investigators
officially
ways
currencies
overseas
bodies
steel
activities
rallied
although
green
watchdog
policies
james
discovered
austria
rules
cities
allowed
bird
securities
ship
closing
criticism
expansion
pushed
nationwide
allies
accord
panel
though
bloc
uganda
yugoslav
##,###.##
territory
critical
resolve
closer
google
hand
arsenal
captain
schools
treatment
revenue
book
output
sharon
software
coup
wake
futures
given
jacques
message
executives
dozen
terms
votes
retired
agents
embattled
cultural
poland
hard
result
disaster
name
decade
ivory
museum
witnesses
student
allowing
agricultural
throughout
shui-bian
hockey
focus
quickly
al-qaida
secret
direct
above
delay
lankan
popular
re-election
demanding
commissioner
interview
risk
soldier
passenger
holiday
loan
nelson
connection
inquiry
recession
tropical
levels
###.##-###
ounce
pulled
northeastern
martin
regulators
criticized
rain
gay
failing
hugo
chavez
greater
different
orders
bombs
roman
auto
detroit
detention
leadership
treasury
industries
relief
organizations
administrative
product
dismissed
common
golf
strengthen
afp
squad
saw
turn
probe
accept
legislative
position
showing
vietnamese
rains
tanzania
soviet
netherlands
gunmen
goods
state-run
promising
hearing
journalists
prince
targets
?
romania
automaker
vehicle
becoming
finished
rest
adding
serve
introduced
jones
destroyed
links
fishing
tourism
tourists
export
adopted
restrictions
pentagon
separate
clash
resignation
referendum
dallas
friendly
jr.
cell
admitted
ariel
###.#
.#
guards
fighters
northeast
injury
worker
consumers
albanian
bulgaria
regime
canceled
longer
sport
based
passed
helping
operator
hurricane
leg
hall
weak
driving
spend
vehicles
population
prix
resume
cause
lifted
boris
abroad
angola
age
aids
venture
owners
cargo
taiwanese
wo
volatile
bankruptcy
clashed
stories
needs
supplies
status
jakarta
fashion
assets
transportation
bob
turning
resolution
racing
mine
imports
tribunal
super
farmers
tests
opec
hands
darfur
events
poll
progress
commerce
u.s.-led
extended
enforcement
per
hk
senator
strikes
responsible
jan.
chicago
illegally
documents
tom
muslims
blocked
steve
freedom
suspect
interests
surgery
renewed
trust
williams
these
immediate
missiles
activity
convention
####-####
questions
state-owned
address
prospects
romanian
cold
immediately
apparently
compensation
positions
prepared
seat
naval
haiti
kept
syrian
magazine
nothing
matches
produce
tough
junior
laws
midfielder
lift
christian
institutions
valley
mandela
favorite
tribal
agencies
kashmir
enterprises
corporation
norway
remote
described
dick
annan
airways
winner
faced
culture
microsoft
`
navy
emirates
producer
diplomats
announce
cycling
revealed
bomber
customers
records
deep
consider
drew
speed
live
dialogue
owner
loans
considered
signing
target
fair
ongoing
quoted
initiative
web
heads
ski
entered
natural
mounting
meters
designed
chips
denmark
faces
marking
gore
blood
tens
awards
accusing
cuts
think
poverty
foundation
three-day
carried
below
birth
negotiator
exploded
wounding
books
merkel
tourist
fellow
shiite
blow
urging
related
halt
brown
shenzhen
lee
surged
benchmark
judicial
yeltsin
legislature
zimbabwean
kill
crowd
christmas
developed
settle
firms
turmoil
humanitarian
relationship
floods
slovakia
actor
kofi
traditional
venezuelan
moves
range
serbian
ag
sex
constitutional
aide
continuing
ocean
impact
onto
looked
my
ball
remarks
spy
researchers
electoral
breakaway
causing
trials
setting
develop
rather
norwegian
one-day
kurdish
purchase
telecommunications
practice
sa
abbas
swimming
receive
parents
baby
atomic
hollywood
spread
sites
politics
primary
limited
stars
animal
voting
able
available
offset
scotland
moderate
threats
patrol
row
angela
andy
arm
pass
pair
know
weekly
li
qualifier
miles
unless
fully
threatening
lawmaker
liberation
involvement
autonomous
linked
dangerous
placed
miss
mugabe
semifinals
yesterday
path
facilities
fields
vessel
boss
governments
activist
expects
ethiopia
peter
f.
strength
appointed
possibility
francisco
presidency
quit
delays
israelis
hour
barrel
injuries
look
grew
woods
couple
exhibition
southwestern
rodham
macao
warming
scale
stake
second-quarter
dubai
image
daughter
entry
peru
unions
expert
downtown
offshore
ensure
diplomat
husband
forecast
thought
alan
retail
##-day
van
giants
politicians
advertising
resources
professional
rice
finnish
louis
benedict
xvi
aboard
falls
critics
hosni
fierce
rome
invasion
guantanamo
returning
nov.
fear
save
pounds
assistance
bond
mccain
table
pace
claim
kazakhstan
draft
sixth
boxing
interim
sydney
computers
agenda
maintain
consecutive
blast
let
highly
success
acting
gerhard
schroeder
employment
successfully
striking
marriage
strategic
resign
composite
hostage
environment
award
conduct
demands
often
friends
stronger
standoff
decide
lowest
timor
guerrilla
easy
northwestern
surprise
barcelona
stores
sudanese
effect
pushing
electronics
colin
powell
conducted
resort
believe
peaceful
rivals
wave
nobel
alberto
ford
dprk
belgium
units
recall
optimism
safe
single
vatican
expanded
#:##
curb
forum
smith
phoenix
kim
estate
alexander
gone
bin
nt$
inspectors
providing
ten
thomas
kenyan
houston
democrat
clean
channel
benjamin
petroleum
ali
jailed
steps
atlantic
date
mubarak
spokeswoman
mother
transfer
nicolas
presented
berlin
chirac
estimated
declined
determine
lake
contracts
additional
quarterfinals
targeting
potentially
bonds
resumed
itar-tass
electricity
shut
charles
telephone
tight
davis
congo
ltd.
testified
flew
facility
staged
exercises
sentence
jose
urban
economies
abuse
partner
searching
failure
powers
easing
appeals
soaring
policemen
raid
custody
questioned
southeastern
al-qaeda
voiced
sun
mutual
awarded
fine
elite
francs
memorial
cutting
preliminary
worked
fbi
girls
veteran
carry
shows
discussed
language
teenager
removed
euro###
opinion
appears
traded
ease
donald
defended
ahmed
trafficking
gained
hu
mosque
judges
membership
choice
buried
grow
probably
gun
defend
branch
appeal
scientific
improved
we
upset
hoping
begun
drivers
continues
overall
manufacturing
winds
albanians
divided
minute
story
caught
slowing
insisted
enter
unity
jordanian
highway
makes
takes
tampa
modern
neighbors
certain
pilot
seconds
bowl
puerto
bought
dr.
intended
simpson
planes
runs
stability
innings
present
brokers
howard
deadlock
alex
appear
defender
metal
secure
proposals
surge
landing
broadcast
danish
communications
tobacco
contest
third-quarter
agent
prepare
gain
exercise
sierra
itself
opera
means
joseph
towns
shipping
friend
shook
memory
weaker
revive
castro
lack
fiscal
provinces
split
ninth
establish
driven
prompted
recorded
cautious
unusual
investigate
partners
cast
austrian
ugandan
destruction
fewer
withdraw
relatives
marines
premiership
ran
handed
gang
houses
mountain
filing
manufacturer
croatian
stood
appearance
include
calif.
watch
first-half
seed
instead
jets
concerned
swine
particularly
rwanda
tear
suit
holdings
mikhail
rock
a.
longtime
nationalist
jack
merger
athletes
peninsula
assassination
marine
brief
speaker
hoped
representative
colombian
conspiracy
cocaine
stem
cease-fire
takeover
clients
skating
journalist
places
remaining
plot
outlook
kremlin
works
damaged
wide
pga
ecuador
complete
villages
adviser
doctor
package
losing
formal
established
cleared
wto
cable
penalty
observers
johannesburg
famous
voice
hopeful
increasingly
account
jackson
singer
assault
widespread
deals
science
miami
fastest
successful
welcome
kansas
factory
sarkozy
bangkok
ballot
arizona
granted
largely
iraqis
argentine
putting
qualifying
question
kuwait
closely
hezbollah
imprisoned
suggested
traveling
debut
abdullah
nasa
mining
pleaded
cover
coal
bailout
fugitive
produced
agreements
representing
lines
liverpool
somali
chile
affected
casualties
postponed
regular
edged
belgian
trouble
radical
libya
fast
duties
violations
funeral
semi-final
rapid
cambodia
johnson
rural
coverage
drought
difficult
newspapers
forest
evacuated
pursue
author
view
devastating
yankees
combined
bali
various
brother
swept
truce
desert
standard
task
citizen
rail
customs
tiny
abu
shift
personnel
weakened
jumped
ukrainian
stable
pull
knee
violated
complex
indicted
upon
suspicion
ioc
jintao
president-elect
approval
hired
fiji
colleagues
lot
belgrade
cia
active
kennedy
earth
philadelphia
mountains
engine
belarus
brussels
massachusetts
talk
negotiators
regions
aviation
wage
withdrawal
chrysler
predicted
something
#-under
nfl
speculation
telecom
so-called
fed
determined
kilometers
yellow
confident
netanyahu
nazi
promoting
unidentified
improvement
euro##
boycott
o.j.
everyone
long-term
carlos
wales
options
kabul
hamid
karzai
testing
wrapped
challenges
partnership
henry
kind
collided
jim
whole
satellite
rescued
tumbled
publicly
uranium
optimistic
p.m.
compete
triggered
resistance
osama
laden
establishment
chris
producers
towards
restore
reserves
doing
holy
frank
square
heroin
lay
kingdom
model
delayed
offices
roadside
diego
seats
crown
alive
reverse
fled
strengthening
reason
investments
beyond
amnesty
flood
discovery
creating
benefits
registered
intense
inter
successor
neighbor
billions
consumption
###th
basis
insurgency
battered
submitted
appealed
pollution
blasts
uefa
words
income
accepted
accounting
visits
hunt
grounds
dramatic
formally
jet
reflecting
delegates
zambian
riot
opponents
vaccine
cairo
comes
wen
meetings
beaten
a.m.
dow
goalkeeper
chelsea
organized
created
heard
acknowledged
associated
surplus
revised
species
gunman
importance
slammed
count
yemen
feb.
cheney
territories
taxes
eighth
watching
long-awaited
foot
jiang
zemin
walter
ring
walk
aside
funding
reportedly
fate
announcement
trillion
absence
whom
claiming
settlements
attempted
first-quarter
manhattan
quiet
worried
ill
eased
deutsche
praised
hot
bulgarian
sporting
direction
wearing
antonio
centers
somalia
killer
website
especially
blew
aides
completed
hungary
busy
selected
fought
investor
forcing
kerry
quick
shareholders
sichuan
rangers
compound
concluded
makers
images
imposed
emissions
recognize
ambitious
rocked
watched
high-level
property
chemicals
minority
scores
believes
gen.
numbers
profit-taking
airports
pipeline
twin
unrest
cypriot
mideast
rich
ceasefire
denounced
oct.
thinking
contact
corner
leone
freed
vision
bp
perhaps
scene
midnight
leftist
assistant
coastal
obtained
collapse
trophy
insurgents
rick
ice
'll
lose
version
treated
grenade
ahmadinejad
hailed
abuses
rapidly
bidding
basic
gordon
violating
midday
stimulus
offers
jews
advantage
schedule
aiming
railway
prague
morgan
stepped
explore
flooding
schumacher
athletics
code
queen
maritime
previously
approve
preparations
note
ousted
attempts
arresting
viktor
aung
don
;
emerged
usual
indies
names
seattle
scott
asylum
guinea
giuliani
deployed
warnings
racial
presence
movies
jiabao
indicated
gmt
downturn
recovering
fishermen
solution
uae
strait
tel
commitment
identified
explosions
nepali
unprecedented
#,###.#
drove
nominee
phase
evacuation
crowded
standards
refusal
twice
asking
dmitry
measuring
honor
speech
packed
bear
acquired
delivered
incumbent
war-torn
included
moment
escalating
tension
asean
breaking
spot
disney
restructuring
luis
ferry
smuggling
sets
seemed
acts
trucks
escape
frankfurt
pick
apparent
why
portuguese
algeria
deliver
advisor
experience
hitting
grant
extremists
kmt
idea
raids
increases
rico
arts
brian
payments
stalled
faster
controversy
defensive
millennium
tell
celebrated
controls
presidents
punishment
comeback
fatally
utility
anti-terrorism
financing
broken
politician
participate
four-year
fidel
tigers
song
musharraf
nearby
struggle
throwing
inning
details
anger
diseases
angry
transit
fly
disarmament
surveillance
flag
hostages
employers
influence
khan
patrick
colorado
balkan
dictator
sunni
threw
love
bahrain
prosecution
opposed
lewis
halted
fatah
mediterranean
pro-democracy
pact
stand
faction
##-nation
protesting
emerging
angolan
feared
boats
four-day
sectors
factories
ballots
islam
boys
dominated
jason
string
chilean
medals
juventus
done
entertainment
attention
chances
oil-rich
regulations
fighter
benefit
disclosed
devices
device
hike
witness
happy
two-year
your
restaurant
pool
monitor
legend
familiar
irna
older
cooperate
homeless
#-year-old
shareholder
baltic
aug.
permanent
heat
plotting
andrew
quality
chip
learned
steady
flooded
stranded
impending
campus
protecting
earned
poised
initial
gloria
celebrations
brutal
singapore
suu
kyi
attending
mail
stations
helicopters
showdown
neighbouring
youth
alcohol
stressed
borders
corn
awaited
citing
improving
manuel
always
stripped
battled
intensified
lifting
bottom
doping
supporting
pain
burned
managed
extension
aviv
phil
donors
sound
races
quarterly
execution
waiting
includes
accusations
checkpoint
things
istanbul
exploration
winners
educational
stanley
materials
deploy
mounted
kuomintang
abandoned
floor
e.
vast
omar
suspend
##-#
medvedev
michel
writers
digital
complaint
comprehensive
detailed
shell
terminal
oppose
dennis
drama
protested
platform
agreeing
masters
imf
berlusconi
acquisition
conglomerate
actress
juan
anyone
coordinate
responsibility
issuing
michelle
rafael
revolutionary
longest
genocide
celebrate
individual
santa
priest
percentage
understanding
crossing
expensive
electric
luxury
respect
institution
pna
birthday
gates
chain
agree
lord
joining
rebound
us-led
dragged
slumped
uncertainty
someone
dawn
route
imported
unlikely
camps
alleging
bombers
walt
sweep
geneva
high-ranking
javier
argued
salt
reactor
provided
phones
occupied
sars
thrown
marks
georgian
mourning
dna
quarterback
playoff
significant
mets
ad
pervez
slain
exchanges
wayne
marketing
high-profile
adopt
technical
shared
fox
necessary
document
scheme
motion
forthcoming
expelled
teacher
gross
frontier
medicine
pictures
outstanding
networks
waste
invest
bangladeshi
mohammad
complaints
pop
ripped
neighborhood
munich
condition
donated
el
subsidiary
##-month
militia
dodgers
##st
fever
lending
fujian
iron
fc
madeleine
albright
fake
formed
widely
exit
snow
oscar
celebrity
danger
infrastructure
preventing
firing
anna
pirates
rounds
fleeing
manufacturers
landed
setback
upper
incident
reduced
roddick
mosul
stronghold
mario
ec
farm
petersburg
plenty
tense
finding
guns
movements
overhaul
word
retirement
astronauts
laid
handling
harry
palestine
chaos
sheikh
challenger
eritrea
collapsed
duke
prestigious
warplanes
rockets
raided
rumors
conflicts
regulatory
ranks
automotive
approaching
savings
fallen
barred
animals
doubt
gambling
risen
looks
prospect
slobodan
milosevic
smuggled
islamist
opener
fleet
airliner
contain
qatar
cartel
lopez
wildlife
parade
damages
wild
ride
retailer
sustained
yahoo
##-hour
courts
rift
storms
tougher
macedonia
mandate
express
isolation
served
unchanged
laurent
sinking
indiana
montenegro
assessment
directly
wider
gangs
smuggle
pieces
alternative
happened
sexual
extremist
backing
rio
reopen
overcame
listed
measure
henan
multinational
salary
eager
competitive
volleyball
effective
weapon
plea
senegal
mind
ruins
attract
richter
poisoning
roger
picking
screen
warner
deported
municipal
socialist
all-star
collision
desperate
pork
our
plagued
airstrikes
silvio
ones
carter
ohio
extra
harvard
wedding
cope
palace
arena
tibet
crack
pickup
basque
mainly
affair
fined
hidden
secured
cambodian
hundred
soared
drawing
competing
joe
burundi
relay
inspections
prisoner
publisher
doubled
slump
ask
freeze
hang
announcing
approach
spoke
decisions
exporting
mary
lakers
marched
feet
weakness
airbus
pilots
wing
persons
anything
lived
focusing
duty
solid
marathon
bolster
zaire
survivors
blasted
check
concert
interfax
landmark
gasoline
scottish
add
fischer
organisation
stayed
dan
type
chosen
graft
year-on-year
inspector
chamber
wang
tibetan
stormed
furniture
diamond
aim
sometimes
hear
suspension
supermarket
impose
withdrawn
shopping
ferrari
bernard
demonstration
everything
billionaire
bhutto
seeks
remove
broad
churches
pledge
spiritual
amendment
repeated
difficulties
limit
expanding
grain
thing
sank
slovenia
anatolia
commonwealth
spill
arguing
replaced
municipality
doubles
controlled
notorious
strongly
bayern
eve
m.
hampshire
amount
extradition
npc
temporarily
disabled
all-time
lama
ben
torture
aggressive
la
fourth-quarter
beer
shocked
containing
passing
sacked
jean
novel
perform
nordic
subway
assured
high-tech
journey
limits
ma
liu
reviewing
inaugural
sprint
flat
era
ally
kicked
wind
electrical
dealt
reporting
filled
second-round
sick
smoking
copa
cleric
incidents
yang
learn
estonia
occupation
married
couples
consolidate
hub
rattled
wu
plays
eye
reopened
five-year
proceedings
hospitalized
diving
politically
dec.
xinjiang
loaded
negative
eyes
managing
practices
overwhelmingly
worse
businessman
pursuit
tribute
learning
arroyo
fires
teachers
wages
society
mavericks
ratings
monthly
pounded
laboratory
buddhist
mental
sister
sidelines
william
charity
endangered
dissident
del
heavily
###-meter
disperse
flying
slowly
provisions
beach
apart
invitation
quake
participating
clubs
extending
liberty
refusing
sectarian
differences
wealthy
enclave
reduction
producing
similar
reiterated
either
zhejiang
alarm
vancouver
cattle
recovered
fail
cemetery
rwandan
gop
sweeping
nominations
sailors
blocks
catch
aims
smaller
challenging
toxic
permission
firefighters
establishing
ends
condemnation
mount
fernando
austerity
slipped
badly
far-right
gathering
spying
nbc
hill
regarding
declaration
advisory
ghana
victim
professor
volume
togo
recognized
suffering
ethiopian
miller
arctic
bombay
rookie
carolina
feel
prevented
fish
reducing
tentative
replacing
stolen
upheld
material
matt
bigger
founder
ken
briefly
alpine
slalom
semifinal
tang
restored
fame
survived
cleveland
clinic
pierre
filipino
rioting
influential
prisons
shed
contacts
census
strain
massacre
fun
acquire
hero
heading
entering
albania
leeds
opponent
usa
apartment
epidemic
girlfriend
resolved
flames
policeman
h.
gaining
miguel
wickets
threaten
ehud
abortion
hardline
unknown
legislator
#\/#
ahern
denver
nationals
tore
rand
lashed
consortium
promise
holocaust
confront
jihad
ambush
unable
rolled
initiatives
ap
daughters
koreans
locked
temporary
communication
solana
shots
syndrome
subject
fort
sony
toronto
bribes
five-day
defeating
choose
harsh
deeply
divisions
warrant
famed
copenhagen
rodriguez
two-time
bell
am
wheat
nomination
scrambled
destroy
isaf
launching
plunge
requiring
attorneys
continent
booming
tajikistan
typhoon
r.
automobile
technologies
instability
unexpected
goldman
widow
knocked
morocco
cowboys
struggled
sar
benazir
forbes
reaction
narrowly
bar
forming
retire
shortly
minnesota
crossed
broker
academy
ailing
bases
chechen
appealing
taylor
restart
delta
reporter
bail
arguments
respiratory
leak
referee
plo
attempting
greatest
costa
defying
murdering
visitors
shops
foreigners
focused
felipe
paramilitary
dalai
reject
ronald
reagan
quest
yukos
feature
begins
slow
tank
vienna
newcastle
searched
teenage
sensitive
guy
veterans
greenhouse
kilograms
hospitals
condoleezza
born
link
parent
beef
three-year
louisiana
limited-overs
guarantee
crews
bit
escaped
first-round
picture
sarajevo
calm
nor
vegas
lloyd
executed
box
artists
consulting
districts
favor
warm
lender
revolution
unicef
boxer
machines
cruise
throw
hijacked
delhi
explosive
battles
detonated
cbs
painful
tie
lunch
maria
releasing
reconstruction
wait
stricken
aceh
unanimously
favored
silver
relatively
haitian
intervention
wrong
scoring
contributions
aging
veto
gesture
eventual
au
directors
introduce
campaigns
malawi
unhcr
same-sex
ac
pitcher
captured
enemy
sarah
riots
authorized
crowds
qualified
harvest
coaches
linking
reconciliation
select
arthur
powerhouse
beirut
sovereignty
avalanche
breast
suisse
battling
suggestions
blackburn
predecessor
disrupt
patience
ian
sponsor
stakes
obtain
fines
mad
clinched
havana
lineup
variety
vice-premier
messages
minor
mortgage
shock
guangzhou
cincinnati
one-year
interested
built
reputation
stuck
virgin
plastic
intention
factions
command
warship
sacramento
kings
alert
refuge
native
braced
rating
evacuate
engineer
random
ordinary
cells
photo
explosives
birmingham
wings
expel
slowdown
andrei
confirmation
creation
homeland
wars
reality
tunisia
disgraced
separatists
kidnapped
tanks
gabon
users
machine
contingent
departed
liberia
tim
assist
staying
dance
locker
le
livestock
tung
narrow
shootout
teammates
expect
daniel
normally
jurors
rupiah
dean
vincent
klaus
princess
holds
metals
jamaica
sued
entire
generation
unbeaten
compromise
cape
ki-moon
alone
mumbai
amsterdam
communities
slight
estimates
refuse
##.###
consulate
sebastian
concrete
arnold
schwarzenegger
eriksson
levy
one-stroke
sworn
fragile
electronic
nicole
resolving
inaugurated
smashed
missed
receiver
unclear
serving
niger
persuade
khmer
observed
steep
distance
##ers
bridge
kaohsiung
follow
zones
violation
promotion
preparation
ancient
opportunity
edition
harare
woes
quarters
lying
relics
stole
caucasus
irregularities
matters
contributed
fa
kyrgyzstan
idaho
patient
acute
elderly
midwest
multiple
promises
seasons
settlers
requested
accelerate
actions
sensex
runner
debts
momentum
marked
hometown
goes
bruce
devils
drilling
en
implementation
bucharest
bertie
provider
chiefs
door
ronaldo
parks
quell
kevin
power-sharing
monitoring
gets
pro
signature
rebounded
homer
tanker
pole
interference
outcome
import
rep.
normal
expecting
disrupted
lithuania
nhl
anthony
pistons
joschka
tycoon
pigs
lows
marijuana
bloomberg
rudolph
negotiating
visas
libyan
ships
owing
underway
performed
####-##
stone
travelers
consequences
unexpectedly
dropping
withdrawing
dog
jacob
bobby
legendary
deployment
panama
grim
karachi
badminton
ability
impoverished
exploring
stretch
thousand
televised
band
blocking
fatal
atop
influx
spectacular
invited
ruler
starts
i.
slowed
eric
petition
oklahoma
illinois
outrage
radioactive
comments
\/
yemeni
looming
classified
doubts
urgent
bundesliga
escalation
tested
miners
reporters
illness
cancel
sitting
drawn
seoul
withdrew
insurers
cross-border
dhaka
contracted
icon
managers
nightclub
bitter
ticket
pose
uprising
suburb
wireless
meteorological
pad
films
owned
valued
transferred
overwhelming
tower
collection
tsunami
client
counterparts
tech
planted
accounts
represent
airspace
magnitude
repair
leather
settled
vojislav
strained
calderon
columbia
succeed
shandong
acquitted
aerospace
sudden
developments
larger
globe
declines
nasdaq
mwai
kibaki
oust
grave
semi-finals
investigations
store
climb
lisbon
defiant
lights
ceo
male
paper
indexes
tael
critic
eliminate
upbeat
nikkei
humanity
scenes
indoor
display
followed
flurry
demonstrated
yunnan
posed
streak
rush
hudson
liberian
medicare
n.y.
clothing
bronze
suggesting
troop
imprisonment
pennsylvania
pitch
statements
divorce
eurozone
revenues
yacht
lyon
seems
proved
tries
las
seventh
bills
patent
partial
planet
hui
ownership
solomon
trainer
lesotho
sox
ranked
volcano
batch
reeling
hosting
score
assailants
hurled
ports
soft
regulator
maradona
cycle
protestors
arrive
fan
comic
inner
jungle
fix
lately
al-assad
pressing
extraordinary
via
renault
lawsuits
risks
mozambican
'd
outgoing
substance
shelter
ossetia
burning
drowned
moon
privatization
uniforms
trans-atlantic
acquittal
iii
partisan
firmer
ftse
respected
amateur
scam
sepp
dam
eduard
shevardnadze
editor
completing
fence
recommended
algerian
examination
memorandum
protestant
undercover
identity
suspending
harbor
junta
designer
're
stockholm
mariners
slumping
bse
cow
unemployed
maoist
deciding
#th
unfair
moslem
ankle
lesbian
opposing
fruit
equity
ex-soviet
answer
havoc
reds
playoffs
dark
principal
consolidated
bolstered
barrier
statistical
testify
triumph
fujimori
petrochemical
sao
bmw
armenia
cyclist
uzbekistan
ron
dry
u.s
structure
behavior
cigarettes
beauty
indicating
babies
infected
tinto
exile
securing
ho
weakening
tumbling
peacekeepers
exchanged
payment
reconsider
touring
underwent
theater
performing
controlling
third-largest
criticised
postpone
declining
tracks
!
milwaukee
prospective
audience
marseille
atp
truth
condolences
original
bout
s.
highs
recording
theme
bryant
remember
design
honored
elizabeth
d.
militias
hurt
falcons
stomach
afghans
defendants
copper
chest
fla.
relative
knew
roll
b
neither
tied
peak
harm
cardinal
biological
killings
murders
laundering
ministerial
pyongyang
counting
regain
chase
implement
sven-goran
consultations
accession
participation
megawati
mothers
kuwaiti
file
trips
universities
hsbc
sentiment
rouge
semi
breakthrough
belonging
talking
sharing
####.##
scientist
harder
mcdonald
quebec
canadians
rebounding
two-month
youngsters
overcome
youths
writer
jorge
unesco
assurances
hostile
celtics
titles
asia-pacific
seng
turnover
addressing
six-day
visa
procedures
clearly
card
shoes
roughly
angel
contagious
restraint
admission
golden
surrounded
bulk
extreme
rebellion
blame
toys
popularity
sinn
fein
hindu
celebrating
prayer
sexually
stabilize
tanzanian
lieberman
honduras
rumsfeld
unmanned
causes
dolphins
overs
roster
confrontation
casino
edge
sachs
tyre
supplier
sluggish
supported
overturned
bipartisan
progressive
dpp
christopher
neck
suppliers
shown
da
doors
stress
ethics
broadcasting
saeb
required
detainees
bonuses
metres
nights
quarterfinal
assassinated
intent
hair
charter
wins
twins
section
questioning
conspiring
liberal
summoned
six-month
nascar
circuit
abandon
leads
mourners
##-man
ivan
blaming
models
slated
ray
skiing
meant
temperatures
pradesh
carriers
zero
francois
corps
parking
buoyed
top-seeded
larry
huddled
rabin
deportation
derailed
escalated
bargain
reading
chair
rupert
returns
flags
mean
stance
makeshift
dismal
debated
balkans
prove
hariri
paintings
###-###
dust
enrichment
proving
cameras
routine
studies
arrangement
formation
testimony
libby
slide
cross-taiwan
rocks
engineering
capture
legislators
financier
madoff
decree
brand
melbourne
dock
plants
pitching
chad
sir
aden
postal
aziz
originally
bahamas
targeted
mob
richest
pre-tax
handful
diabetes
hits
seeing
delivering
dublin
pregnant
inmates
santos
paulson
welfare
concerning
walked
arabs
pataki
greenspan
s
resuming
economists
passage
tomorrow
chartered
depot
gather
left-wing
magic
dealing
symbol
recover
drinking
volunteers
shah
commit
currently
moments
tonight
confiscated
yevgeny
nissan
procedure
abdel
admitting
advisers
false
cautiously
vowing
jump
substantial
mercury
diplomacy
mongolia
eagles
incentives
unleashed
wood
mika
khodorkovsky
garden
one-time
trend
alabama
inspired
wholesale
last-minute
pursued
achieve
inspection
saint
kostunica
stamp
smugglers
appointment
dagestan
hiv
indo-asian
pension
performances
j.
brawl
barry
discussions
telling
publicity
amman
threatens
mena
gonzalez
respond
maintained
sergei
honors
baker
suburban
convoy
elements
demonstrations
recalled
petrol
letters
prosecute
pledging
disciplinary
bars
displaced
properties
hiv\/aids
poured
prompting
andre
lady
deepening
warriors
covering
thick
arriving
poultry
breaching
covered
narrowed
uncertain
mahmud
comedy
existing
barriers
tightened
operate
pat
unilateral
cents
promoted
abc
dominican
hague
queens
##-member
actors
under-##
tree
devastated
outlawed
valencia
afford
nv
mechanical
mystery
fact
deliveries
settling
himalayan
views
estranged
saving
rubber
style
pitched
willingness
congolese
handle
reasons
bags
timothy
ranking
outfielder
tragedy
exposure
azerbaijan
cubans
broader
yield
todd
crop
populated
islamabad
exporters
kicking
encouraged
rent
artillery
gunships
fallujah
shutdown
mountainous
interviews
enron
derail
kick
deserves
shoppers
glenn
speak
anti-war
particular
adventure
knicks
registering
investigated
ying-jeou
verdict
wartime
norodom
branded
dissidents
everton
roc
hebron
jointly
teng-hui
disappointing
receiving
cloud
resource
rolling
possibly
shoulder
cafe
trapped
photographs
cyclone
luxembourg
solar
silicon
handing
short-term
arsene
wenger
shore
one-fifth
beleaguered
nato-led
blatter
capable
persistent
lucrative
governors
imposing
jobless
pardoned
closure
alongside
changing
kuchma
theories
persian
moody
assigned
healthy
nicholas
clock
henderson
landslides
connecticut
friendship
monks
###,###-dollar
f-##
expose
abducted
missionary
malcolm
tall
jimmy
equal
lions
routes
monitors
ibn
worshippers
emirate
nathalie
valuable
wta
sidelined
qian
qichen
matter
bullets
rescuers
honduran
cleanup
openly
digested
heavyweight
mouth
dispatched
briton
methods
peruvian
paulo
lingering
fearing
arabian
proper
cox
halting
delaying
personally
anti-government
amendments
dream
actively
sentences
justin
stroke
noon
parole
possession
samuel
director-general
wilson
rovers
traveled
franjo
tudjman
commodity
grabbed
pilgrims
frederick
second-biggest
tender
,###
fisheries
wisconsin
ultimate
blake
shaanxi
tripled
priority
jenin
fallout
treat
wildfire
remainder
suspicions
generations
beatles
bbc
bloody
salvador
run-off
temple
kobe
latter
shipments
ideas
rubles
roles
blues
bow
listen
fred
chandrika
kumaratunga
colony
binding
indefinitely
reliance
controllers
operated
weighing
confused
rev.
taichung
purchases
simply
straw
vaclav
torrential
shrugged
bankers
vicente
blue-chip
climbed
content
densely
cool
feeling
caution
responding
revenge
certificates
conservatives
trawler
hovered
weightlifting
disappearance
gary
attended
ernesto
mahathir
delivery
infections
ca
mozambique
judiciary
undisclosed
option
packers
injection
picasso
terry
dole
cards
tackle
piracy
hybrid
servants
kuala
lumpur
cnn
guild
citigroup
pages
achievement
tears
stewart
selection
dubbed
ex
monopoly
satisfied
removing
greenpeace
mechanism
thin
trademark
associates
chongqing
concentration
rogue
bromwich
albion
dave
brothers
clamp
wealth
specific
vibrant
walking
mars
spreading
reunion
correspondent
deliberately
suharto
principle
cleaning
buildup
guaranteed
younger
volkswagen
civic
abolish
stephen
abused
layoffs
behalf
recommending
nervous
a###
paint
tool
americas
ignore
nominated
manila
true
durable
unusually
page
worry
robbery
bethlehem
jerry
full-year
telecoms
enjoy
farmer
disappeared
defiance
topped
coca-cola
anticipation
undermine
counter
landslide
convinced
straits
lining
toughest
shop
hemisphere
scrambling
trigger
construct
broadband
silva
text
dedicated
contaminated
smoke
freestyle
acquiring
label
conceded
clearing
rudd
posts
morales
ferguson
racism
bombed
hosts
orlando
explanation
handover
taxi
sultan
regarded
theaters
observer
vital
plains
operators
universal
license
oval
legends
darren
hampered
stretched
pandemic
odds
monarchy
wildfires
sense
eta
severely
hiring
lucas
surrendered
dominating
envoys
uttar
leaves
accepting
torn
columns
beside
filling
edward
weighed
refining
swing
affect
llc
zuma
marred
yitzhak
shimon
peres
ammunition
aggression
slash
grip
netted
airstrike
casting
spotlight
murdoch
celtic
hunting
immigrant
eleven
derby
outlying
cole
contribute
outskirts
completely
conducting
touch
cooperative
kcna
faulty
picked
airplane
mississippi
chi
discussing
journal
thieves
n.
underscoring
overtime
'##s
strategies
enhanced
color
explain
knows
hungarian
contentious
burden
jaffna
turin
africans
opportunities
antitrust
ventures
mac
stages
moroccan
bachelet
#.####
serena
montreal
commanders
floyd
mph
runway
publishing
fiat
medicines
virginia
hinted
armored
espionage
organisers
insisting
assertion
impossible
rushed
specter
switch
crushed
highlighting
garment
gdp
easily
cotton
teen
sciences
ballistic
graduate
sky
frozen
shortage
soybean
dramatically
renew
pro-western
exposed
reversing
milk
addition
provisional
windows
comply
secretly
precious
alps
disasters
kafelnikov
orange
register
furious
signal
baht
l.
ensuring
brings
insurgent
supervisory
wal-mart
marginally
poorest
consensus
g#
bt
fidelity
extensive
toy
polling
registration
slid
retain
sealed
cardiff
pretoria
long-delayed
bourse
nature
rape
dipped
khartoum
projected
rican
b.
eight-year
wish
notice
advocates
sam
olusegun
obasanjo
turkmenistan
##-month-old
stepping
stalemate
shootings
najaf
widened
honda
uzbek
slashing
strokes
campbell
quarter-final
sukarnoputri
trail
leaking
premiere
silence
mongolian
retiring
residence
bundesbank
superjumbo
excessive
pilgrimage
war-ravaged
textile
papua
isolated
inmate
ubs
brain
hassan
plunging
discipline
fund-raising
hashish
encourage
takeoff
stalling
seekers
strengthened
foes
surrounding
weighted
gm
karl
alaska
clearance
queensland
importers
risky
erupted
donations
venice
porto
drinks
dictatorship
kurds
wary
toyota
medalist
allied
hunger
hans
balance
subsidies
breaks
homosexuality
shield
berth
tonnes
frenchman
tzipi
livni
outraged
holidays
vice-president
alvaro
dusty
damon
runoff
whatever
golfer
centuries
samsung
granting
advised
ernie
reorganization
spa
reigning
guide
advertisements
u.s.-based
voter
spirit
allen
album
modest
justices
sequel
transition
##-kilometer
arrival
seal
thaksin
shinawatra
solo
elsewhere
gonzales
deposed
par
wimbledon
moldova
ore
maximum
right-wing
ceiling
g##
internationally
studio
oregon
mitt
romney
peugeot
underground
preferred
vacation
carl
hamilton
migrants
finishing
h#n#
except
newest
dividend
wright
long-time
cesar
ncaa
mines
roberto
pending
pressed
indigenous
surrender
competitions
trees
negotiate
applied
prediction
rebuild
artist
shattered
bull
unita
assaulted
advice
crippling
core
nikkei-###
administrator
belief
experiences
bergman
closest
pulling
tajik
lpga
affecting
lottery
strongest
saved
nec
salad
us-british
montana
hip
seemingly
estonian
tunnel
cardinals
cruz
e-mail
toss
singles
cameroon
surprising
a\/h#n#
accepts
historian
declare
seizure
simple
photos
paraguay
professionals
challenged
cabin
seem
banning
slovak
yangtze
villagers
birds
scrap
mandatory
volumes
bowling
proceed
doha
jeopardize
uk
ibm
eventually
retailers
terrain
populous
gear
earthquakes
julio
marc
reinforcements
panic
finale
islanders
sight
downward
literature
lion
herd
sounds
madagascar
inevitable
sail
run-up
bolivia
moqtada
usually
felt
stadiums
bankrupt
revived
plague
component
lennart
raw
cooking
ferdinand
chased
faithful
ramon
switching
acid
looters
yields
pittsburgh
sacking
shoot
dogs
zairian
bribe
concept
wooden
uygur
captivity
tuberculosis
tsvangirai
intel
profile
dating
ignored
ratified
concessions
machinery
battalion
verge
bids
trains
sotheby
christie
price-fixing
ransom
johansson
generally
cayman
employee
secrecy
elephant
dismissing
warn
macapagal
aluminum
ravaged
rebounds
intentionally
concealed
two-hour
leonid
survival
ibrahim
economist
nonprofit
pioneering
punch
letting
flash
roads
assisting
deepest
fertilizer
bandits
baptist
predicting
voyage
authorization
informed
enforcing
naming
johan
experimental
pharmaceutical
filming
dechy
speedskating
secular
andres
leagues
hearings
proof
two-week
alejandro
murdered
peso
punishments
lesser
sessions
commuter
enjoyed
disputes
sniper
buenos
aires
insufficient
donate
guatemalan
azerbaijani
pacers
spell
faith
ramadi
warsaw
q.
plug
wanting
liberties
swinging
chess
averted
tansu
ciller
intends
archaeologists
stumbled
cloning
kathleen
foot-and-mouth
murderous
repeatedly
chanting
slogans
better-than-expected
world-class
meets
martina
eagle
boutros
boutros-ghali
hutu
voluntarily
cautioned
austin
objection
demonstrate
depression
tortured
hawaii
survivor
testifying
croat
quoting
reef
corporations
amounts
customer
balanced
laying
schoolchildren
three-run
brewers
deng
strife
papers
warrants
albert
permit
icy
coyotes
mvp
hastert
front-runner
pleased
conviction
featuring
yale
spate
capacity
bishop
stinging
encounter
healthcare
##-percent
manage
nicaraguan
coordinated
maryland
recalls
debris
wreckage
buyers
destroying
crops
appropriate
hafez
fisherman
partly
anthrax
remarkable
rejection
franklin
prosperity
ethanol
alarmed
really
lavish
undergoing
psychiatric
bosnia-herzegovina
homemade
thwarted
seizing
victories
diverted
conversation
resist
consistent
rocky
moslems
croats
ted
correa
mend
contributors
estrada
maiden
libel
peacefully
jonathan
indians
assignment
disagreement
dairy
buck
comedian
wreck
bargain-hunting
complained
drum
sunshine
tea
mortars
councilor
hispanic
diners
knives
eating
armor
evaluate
shane
moderately
panda
meals
ike
cosby
suns
drunk
macedonian
heritage
article
titled
fundamental
debates
opens
forests
dae-jung
saxony
expulsion
aided
pfizer
adams
legs
honorary
clothes
bed
burma
undermined
leaks
stuff
rafah
examinations
gustav
witnessed
haven
protected
torch
vulnerable
southampton
saakashvili
clampdown
consular
audio
uniform
christ
handball
cat
rod
tighten
lawn
committees
traffickers
individuals
stationed
best-selling
recount
observe
drills
stopping
participants
olmert
accidentally
deliberate
lynn
notes
dupont
rarely
dalian
shipyard
liaoning
trailer
require
passports
equestrian
jaap
hoop
scheffer
broncos
luiz
inacio
lula
businessmen
humiliating
blind
###m
#,###.##-#
,###.##
negotiated
aftershock
overshadowed
mediate
goodwill
anti-semitism
external
sana
sits
atmosphere
rises
unseeded
martyr
elect
undermining
rehabilitation
motorcycle
significantly
limiting
solving
marching
vegetables
contested
long-running
adequate
maintaining
boosting
reluctant
privacy
owns
broadway
keeping
congratulated
sailed
hewitt
powered
deposits
influenza
chechens
poles
kaczynski
genetic
lowering
advocacy
macau
monarch
farc
tossed
suddenly
alternatives
predominantly
contenders
quietly
neared
xu
competitors
unique
method
reminder
farewell
invested
critically
lahti
plutonium
decisive
wei
jianxing
cote
embarked
musical
hole
lagos
speedy
slaying
softer
unsafe
mysterious
lanqing
sole
scoreless
swim
shrinking
peshawar
inauguration
overthrow
lunar
downer
libertadores
immunity
chaotic
repay
penghu
households
undergone
biden
railroad
installations
woo
offenses
dortmund
endorsed
nablus
handled
knowledge
dragging
three-month
smart
portsmouth
hire
asset
jeff
approached
amounting
resumption
diet
dhabi
rooney
posting
jesus
scooter
cologne
helmut
kohl
coleman
tariffs
transparency
saga
impasse
facebook
self-rule
nazis
bayer
stabbing
sterling
spurred
eddie
earning
kyrgyz
lifetime
tightly
merrill
lynch
freshman
tide
supposed
disciplined
greenback
atrocities
communists
cavaliers
slam
alfred
obstacles
shrink
mitsubishi
guest
tightening
storage
c.
anglican
rays
deputies
radar
headlines
privately
zhu
finds
insulting
religion
frustrated
innocent
reacted
landis
duma
hurricanes
guarding
reign
terrified
disgruntled
bulls
poses
cheered
legitimacy
marion
skills
ryan
fractured
insurer
improvements
specialist
restricting
anti-corruption
abolition
clearer
storied
lure
eduardo
severed
interfering
fiercely
condemning
affiliated
thinks
packages
peace-keeping
chengdu
seasonally
adjusted
insist
workforce
hail
recruiting
iowa
globalization
coordinating
commemorate
lined
raped
resulting
casey
assam
editors
palm
kenneth
writing
examine
sean
c
cracks
detainee
expenses
mohamad
assists
career-high
penn
tradition
soyuz
transplant
fu
brokerage
nancy
ahmad
keith
evasion
indycar
lionel
pound
licenses
felix
anti-
generate
pivotal
praise
plummeted
blistering
degrees
chang
sleep
bremen
dynasty
sacrifice
phillies
inviting
warren
grass
stream
stunning
height
breakfast
daimlerchrysler
mud
kentucky
endeavour
reaches
missions
repeat
arkansas
#-foot
spears
gene
brigades
bilbao
repairs
aged
cancellation
vinny
struggles
troubles
penalties
map
exactly
greeted
absent
cos.
pave
hard-line
credible
reference
prepares
priorities
deteriorating
spacecraft
faltering
submit
ebola
lodged
blames
endorsement
barely
successive
jesse
pharmaceuticals
jackie
relax
bernanke
proudly
guarded
dominique
seaside
mittal
intercepted
coordination
malaysians
cannons
professors
plight
nadal
aggravated
projections
lavrov
barbara
cheap
campaigning
cracking
cooperating
financiers
taiex
error
passport
indicators
commuters
foul
endurance
riders
ucla
maltese
marco
hammer
hebei
protocol
read
sofia
ward
walls
silent
brad
huang
powder
belfast
fta
partially
items
holes
subsidy
di
productivity
rankings
greatly
abuja
ernst
recommendation
loyal
bogota
insider
willie
soured
informal
mohammed
xavier
archbishop
embezzling
gbagbo
celebrities
pressures
borrowing
spasm
caretaker
ericsson
brewing
uribe
tone
marie
mediation
slaughtered
lands
reaffirmed
impeachment
jan
cristina
kirchner
bribery
walid
committing
germans
brakes
patrols
roared
surprisingly
gases
ruben
container
els
copies
reductions
urge
ismail
dominant
bucs
igor
max
insists
deterioration
borussia
luck
stefan
respective
rode
rider
rugged
distributing
emotions
've
would-be
glass
commentator
hanoi
array
salvage
teammate
feels
assassinate
enqvist
sample
uproar
unresolved
brink
amelie
paying
busiest
class-action
downhill
balloon
certainly
km
voronin
downgraded
armey
else
flee
ait
moore
novak
djokovic
chronic
processing
motorists
siege
twelve
hedge
zurich
pti
parked
values
denis
profession
citizenship
chapter
procession
observation
metro
slip
weeklong
##-point
copyright
implementing
obligations
spaniard
pc
walker
rid
namibia
sexy
fill
introduction
accidents
barak
homered
awaiting
slashed
fees
tian
profitability
myung-bak
pablo
enterprise
oscars
danny
unlawful
##nd
apply
magistrate
climbing
australians
brace
craig
oau
viewers
stands
tommy
inter-korean
high-speed
weaken
luciano
pavarotti
regrets
spur
earn
shelled
advise
celebration
minimize
ranch
crash-landed
dsm
holder
yangon
censorship
cannes
khatami
sleepy
colombo
holders
amy
janet
reversed
legally
experienced
sustainable
expressing
moratorium
amended
p
post-war
doldrums
palin
tours
playboy
pardon
masks
grown
ingmar
marxist
dong
amazon
suspicious
opium
dangers
teenagers
carbon
chernomyrdin
safeguard
lighting
frayed
hills
winnie
boundary
singers
medium
featherweight
ultimately
bright
avert
blaze
boxes
hikes
clubhouse
bat
center-right
fund-raiser
roh
substitute
outspoken
peng
whale
maine
berkeley
communique
heath
floating
polanski
programme
oldest
dump
stabilization
formerly
charging
hunter
steven
otherwise
circle
encouraging
###.##-##
cigarette
legalize
pelosi
mecca
six-party
senators
sumo
guangxi
zhuang
qantas
indianapolis
tianjin
awkward
post-soviet
unjustified
purposes
motions
pete
farms
shifts
arthritis
provision
venue
indefinite
sue
supports
effectiveness
tucked
survive
ltd
gorges
difference
shape
atletico
sparking
profound
misleading
burns
obvious
researcher
turns
rely
scaled
reed
lawrence
defuse
riding
flexible
segolene
andrea
hat
agassi
revival
gaz
seas
fairness
cameron
injunction
duo
bollywood
coffee
startling
seismologists
bangalore
tickets
mortar
vendors
lane
authors
curbing
stumbling
pro-government
attacking
infiltrated
seminary
entrance
arch
blockbuster
trends
folks
whip
attractions
upstate
jockeying
swissair
gauge
knight
myth
zoo
eccentric
confronting
chalk
characters
guys
bashar
lifeline
helsinki
suggestion
reunification
supervision
attached
merck
vioxx
moe
phenomenon
nuts
scrutiny
oysters
...
ranariddh
marcos
draws
#.#-magnitude
garbage
ortiz
sat
hamburger
strive
disband
dashed
medics
bridges
cereal
waves
roma
###.###
legality
mobutu
sese
seko
urumqi
austrians
quarantine
pistol
all-rounder
stunned
yelling
hate
oman
henri
install
seven-time
highbury
gunners
implemented
enacted
locations
blackwater
commando
reiterating
contempt
principles
multi-billion-dollar
catastrophe
thorough
motivated
commodities
diamonds
mate
paving
precision
zagreb
blazes
dakota
bizarre
catholics
convened
elaborate
huckabee
defining
innovation
workplace
xanana
gusmao
processes
joke
francis
liquid
courting
hide
eroding
pouring
defied
ai
sugiyama
eleni
dale
kelley
home-made
beware
timely
n.c.
mafia
wound
brilliant
touting
franchise
safeguarding
hobbit
emir
hamad
clerics
bet
salmonella
prop
symbolic
ruined
suarez
hopman
violate
banana
philips
signaling
rebuke
autopsy
wreaked
ansa
drug-related
amusement
ads
instant
betty
hbo
ambushed
reception
eurostat
imminent
broadcaster
supposedly
tulkarem
awarding
economics
clive
spector
tsang
patrolled
bourses
harrison
rammed
collect
swath
operational
types
al-maliki
ryder
nepalese
highlighted
leap
composer
frederic
albums
fashionable
hanging
fundraising
cooper
mini
microchips
dynamic
kyodo
attitude
homosexuals
garry
kasparov
contests
mice
definitive
declaring
improper
assaulting
ranging
bhp
effectively
aquino
editions
stabbed
saba
riyadh
designate
indian-controlled
institutes
credentials
master
indictment
seminar
microsystems
matching
hardware
m
birdies
capsized
bengal
classes
trained
motives
brooks
killers
improperly
cheating
re-elected
osce
artificial
metric
bishops
revising
easier
heating
manned
brooklyn
scattered
bongo
xi'an
circus
rubble
chanted
toured
roses
lufthansa
hefty
mastercard
guarantees
hood
library
upgrading
hotels
spat
physicians
federer
banner
holmes
uniting
alonso
gripped
tanjug
chalabi
cleaned
jean-marie
pen
jong
forcibly
credits
pretty
halls
architecture
thompson
rough
god
opinions
hurting
revamped
explaining
circumstances
loved
intensive
ga.
canceling
harbors
confirming
seniors
hatred
siew
succession
havel
stumps
heralding
onslaught
pfp
ethnically
intervened
fernandez
gives
manouchehr
mottaki
kitchen
generali
uninspired
tepid
edinburgh
safer
drops
deposit
disclose
jean-claude
protectionism
attractive
ablaze
diane
testosterone
iaaf
patriots
appearances
d
clergy
swallowed
justify
zedillo
chiapas
email
muhammad
ear
squeeze
hug
electorate
pitting
twenty##
criticising
heroes
undertake
parmalat
busted
renegade
location
fronts
heartland
landfall
diesel
scarce
pairs
damascus
nationalities
algiers
christians
sheik
sociologist
experiments
euthanasia
jiaxuan
chamberlain
medium-sized
dumped
warne
fit
beloved
escort
raced
chambers
mode
sugar
hiding
pierce
motorola
retained
on-going
cross-strait
deterrent
#-under-par
wolfowitz
lesbians
knowing
expo
scottsdale
print
dismiss
engaging
fast-growing
retreated
kanu
adjourned
woodball
bedroom
washed
salvaged
cent
orthodox
introducing
victoria
expedition
chat
certificate
viewing
mausoleum
java
giro
d'italia
govern
piling
thrashers
ivica
kostelic
reelection
srebrenica
havens
implements
actual
bankruptcies
dilemma
salman
pre-emptive
ridge
totaled
courthouse
safely
fortified
pakistanis
oak
ha
rallying
n.h.
pesos
easter
egg
deadliest
sour
secondary
classroom
exiled
potter
lone
gerald
arranging
prolific
describing
revitalize
subsidiaries
wells
nestle
collecting
premium
logistics
jeffrey
lists
stern
wipe
loretta
slovenian
railways
frequent
upgrade
bloodshed
y#k
basra
caucus
chiang
zimbabweans
picks
choices
automobiles
libraries
kabila
three-week
solutions
chiao
nctu
hsinchu
specializing
ailment
guidance
carlo
sensation
shields
emotional
ceremonies
grammy
prudential
kickbacks
pioneer
ecstasy
pills
responded
jordanians
erakat
top-ranked
fares
kids
explode
abandoning
write
coaching
recommend
unpaid
operates
stones
clement
fifth-seeded
sergio
dip
kenyans
die
nuno
margin
plenary
defused
respectable
restrict
audiences
divers
diamondbacks
bound
refueling
zayed
non
soil
vegetable
combating
halloween
submarines
infecting
union-patriotic
zanu-pf
romano
prodi
benefited
depressed
scandinavian
empire
drives
basically
manner
forged
speedway
heilongjiang
pneumonia
convince
mason
season-high
congressman
vuitton
lech
hernan
gomez
d.c.
climax
shortened
###-year-old
bore
counterterrorism
ton
oas
yelena
authoritarian
reservoir
flourishing
skate
ruth
buffalo
smallest
ram
prior
conditioning
unexploded
d'ivoire
tottenham
metrostars
usher
skyline
impressive
nursing
katrina
garage
synagogue
recep
tayyip
erdogan
beckham
robinson
hell
elusive
chill
participated
monument
flexibility
follow-up
copy
magnificent
leonardo
enhance
pan
sacrifices
gabriel
sprinter
robbie
rupees
emphatic
waging
pro-taliban
tributes
'm
disastrous
hainan
arrange
orbit
assumed
#,###-year-old
weight
sled
broadly
automakers
crosstown
tires
highlands
inject
cornerstone
windsor
castle
garcia
examined
colon
taught
pipelines
exporter
cookies
centrist
tirana
probing
organised
utah
jazz
spurs
dangerously
manpower
brisk
fatalities
regretted
heights
bands
filipinos
priests
graeme
bottled
anglo-dutch
favorites
buses
capabilities
unfortunate
cuomo
grace
blacks
criminals
networking
countryman
coc
firmly
honoring
auschwitz
confederation
perjury
clinical
upward
pettitte
#m
organs
allows
marry
permits
wicket
basf
rallies
gate
gala
revamp
gong
mcveigh
muscular
calvin
welterweight
bonus
shiny
tennessee
sanchez
gibraltar
hwa
ankara
tareq
recruits
recapture
magistrates
branding
batons
fortunes
oprah
winfrey
crippled
subdued
springs
performers
johnny
hasan
spectrum
outsider
wb
separating
physical
breath
cohen
integration
dayton
jurisdiction
buyback
episcopal
installed
alliances
devil
continuation
alitalia
lethal
back-to-back
inhuman
nick
pronounced
theo
waigel
gaps
marian
warehouse
presentation
lobby
checkpoints
trinidad
tobago
frustration
physician
diagnoses
augusto
deny
jetliner
citroen
texan
undecided
acknowledging
swede
songs
toppled
larijani
besieged
creditors
bradley
prevention
outfit
lance
armstrong
stick
jerome
lung
aliyev
botafogo
bolstering
u
nostalgia
calculations
flow
underlined
ambitions
reservists
foods
drifted
aegean
reassure
placement
papandreou
ticking
astros
italians
josh
aftermath
spilled
china-asean
philip
morris
sober
jails
plate
wealthiest
panathinaikos
aek
yachts
invade
gravity
volatility
birdie
feud
captive
iberia
skier
nokia
rewrite
resurgence
one-third
shortfall
maldives
joy
attracted
buffer
robin
renovation
escorted
tiles
hernia
wisdom
violates
anti-doping
defenseman
mir
acquisitions
cai
fitzgerald
one-month
hepatitis
spectator
rob
helio
castroneves
pulverized
appearing
servers
governmental
occurred
wrenching
repression
##,###-strong
linda
converted
fend
scholarship
dismantle
depicting
iceland
fahrenheit
dismissal
pageant
chatted
shrugging
negligence
werder
hanged
kenny
footwear
organizer
palestinian-israeli
editorial
tempered
murphy
marlins
dates
good-neighborly
reveal
rica
thierry
vieques
kamal
toppling
restive
siberian
character
mexicans
accommodate
waged
alter
alexei
seven-month
#-foot-#
shawn
injected
britney
screening
insolvency
scare
recruit
high-stakes
rage
lovers
iaea
conventional
populations
define
santander
u.s.-backed
statehood
chesapeake
stearns
worsening
convene
tumultuous
prize-winning
rotating
looting
shrine
militiamen
metropolis
condoms
relationships
cabrera
exclusive
shoe
merge
sol
ambassadors
drc
abdul
tells
trusted
trim
cheering
troopers
haas
evaluation
timorese
socrates
strict
discharged
describe
looted
burundian
proposition
deeper
euro-zone
ministries
kidnapping
heated
unpopular
feeding
five-time
modestly
monitored
wef
zhuhai
magnate
heir
timber
abusing
malian
french-speaking
instrument
polluted
erekat
featured
flamengo
generated
part-time
cd
esmat
near-term
europa
endorse
restoring
vying
telkom
adjust
cheaper
elian
grandson
collections
identifying
climbers
sergey
hosted
mauritania
sahara
diversify
arats
statue
gotten
kelly
afterward
dylan
sailing
forecasts
arising
enhancing
yushchenko
intentions
sooner
gerulaitis
scholars
barometer
iconic
saab
bloated
sadr
confusion
ivanov
prizes
risked
aground
kawasaki
obscene
chickens
nobody
jewelry
consultancy
overturn
resulted
st
bag
pack
parma
rebuilding
matthew
brewer
turbulent
terrible
horrific
infants
strasbourg
shutout
cubs
perez
#-month
corrections
kuwaitis
long-standing
gansu
excitement
demolished
bleak
lockdown
mcgreevey
kgb
litvinenko
london-based
kidd
fitting
clout
ncs
polio
dose
roxana
saberi
internally
slower
puts
scenic
kinkel
residential
nose
teen-agers
salvadoran
capitol
kg
warranted
tadic
admiral
abidjan
un-backed
vigorously
properly
millionaires
supporter
communicate
detailing
suing
ivy
turf
engulf
zhang
nighttime
rampage
chorus
ramos
nephew
physicists
sensing
nasty
framework
wooded
bold
drugmaker
cook
teen-ager
affiliate
rigging
shunned
victor
solve
york-based
deficits
muallem
po
sang
mock
shifted
second-half
glasgow
instantly
middle-aged
government-run
generals
questionable
freight
winger
heathrow
drunken
lima
jay
minh
eni
land-use
cska
pests
tracked
airliners
thus
kandahar
transfers
physics
republics
robber
lecture
quo
crushing
yoweri
museveni
lakes
rampant
ecological
doll
collected
rhetoric
mainstream
stevens
sv
lahore
widening
tainted
edmonton
jitters
wilderness
written
patriot
publications
profitable
blunders
await
steelmakers
box-office
oil-for-food
pasta
standstill
roadblocks
immune
challengers
pipes
wbc
lightweight
bells
topic
trace
wine
naked
wore
leverkusen
franz
chiluba
tan
orchestra
stated
inhabitants
unite
wizards
gcc
boycotted
batsman
orleans
fledgling
zhaoxing
volunteer
elementary
bolton
russians
parcel
cosmic
fourth-seeded
compensate
clean-up
missouri
foundations
speakers
grocery
pullout
rejecting
pressured
underlying
steaming
conclusion
examining
adults
erected
#\/##
surprised
dumping
pricing
rafik
integrated
engaged
safeguards
surging
luther
ramallah
lies
misused
holed
round-the-world
destination
emmy
regret
unauthorized
recipient
mp
arrangements
dual
waited
alexandre
torched
panthers
tracking
piece
strides
soften
pirated
unstable
shining
fertility
assess
aspects
yankee
kwazulu-natal
backdrop
reshuffle
monster
belong
ratko
mladic
###-##
shipbuilding
activated
##-game
stuart
bowled
efficient
helps
northrop
cruel
drill
idriss
deby
banco
mighty
ducks
societe
generale
fee
institutional
extremely
billy
prefer
reprisals
presiding
geological
ecomog
consuming
residency
contained
guided
lords
maintenance
razed
raged
manipulated
ajax
sovereign
tactics
explorer
amr
swirling
preseason
hostilities
attendance
conferences
monkeys
blowing
sophisticated
minimum
developers
discretion
monroe
taboo
virtually
strictly
ladies
luanda
tying
margins
latvian
lenders
cracked
resurgent
counsel
simultaneous
punished
pared
cede
knock
technological
smithsonian
barnier
accords
bets
reformist
flocked
kirkuk
cache
skiers
logging
abiola
lebed
reno
lleyton
four-time
glory
large-scale
nino
elena
malaria
dinner
murky
amir
enforce
grouping
badawi
magnus
steelmaker
quarter-finals
atlantis
sure
choked
tragic
gibbs
vice-chairman
satisfaction
downgrade
b-share
playmate
boyfriend
adelaide
wonder
situations
radovan
karadzic
biathlon
standings
hurdles
dakar
shipment
bullion
troy
shi
sampaio
halfway
unofficial
stanford
counts
needy
advancing
aggregate
presley
aggressively
conservation
r-texas
flyers
oversee
executions
countdown
tip
eggs
unarmed
selective
diagnosed
allenby
journalism
succeeded
organizing
athletic
vacant
metropolitan
grenades
defenses
secessionist
qinglin
rematch
motorcycles
mall
renato
ruggiero
tracy
gray
open-ended
serie
psychological
vacuum
me
premiums
ouster
spinning
severing
relegation
default
rudy
airborne
drone
moo-hyun
rongji
hottest
twenty
associations
monaco
spotted
financially
stampede
arranged
wagner
mile
batting
conversations
speculators
bounced
##-billion-dollar
convincing
demonstrating
porn
kampala
shaft
filmmaker
benfica
chicken
everybody
sake
archdiocese
ricky
woolmer
milo
djukanovic
jaromir
jagr
caracas
alerted
stoppage
wfp
lackluster
pensions
fiery
p.
qualify
quinn
angered
horse
meat
sayyaf
qinghai
throne
undergo
anhui
prostate
cross-straits
divide
seventeen
##-foot
sedan
nearing
cash-strapped
grade
remedy
venus
balls
minors
actually
first-degree
void
wade
regulate
clemens
tube
parkinson
symptoms
una
humble
confederations
objections
myself
extinction
disposal
complying
nicaragua
unify
rasmussen
restaurants
triple
fare
candidacy
generic
solemn
laboratories
eiffel
forge
upswing
cinema
airshow
satellites
intensify
sheryl
swoopes
unilever
consideration
audit
attendants
bowler
s&amp;p
asx###
transplanted
bosnia-hercegovina
transmission
mergers
none
claus
corsica
randy
ritual
productive
good-will
calf
retaliation
singh
sprawling
miner
mclaren
hoc
collapsing
swap
worship
mattel
historical
chose
medex
separated
nairobi
licensing
uruguay
caps
cement
relating
counter-terrorism
cave
characterized
lucky
oilfield
recalling
dissolved
overseeing
damaging
messi
volvo
fixing
periods
lisa
breached
talked
applications
corp
roosevelt
second-largest
swollen
emile
lahoud
croix
comparison
manufactured
martial
karim
knocking
reynolds
edison
hushen
designated
borrowers
happening
sped
engulfed
insights
timetable
teaching
adoption
##rd
refrigerator
eisner
terminally
oxford
meddling
brotherhood
two-thirds
bertrand
mood
simmering
pure
sorrow
evolution
seismological
swiftly
deploying
depleted
descended
eindhoven
hitler
roche
anti-taliban
oscar-winning
commanding
exhausted
sevens
auckland
arbitration
mass.
infringement
planting
thirteen
porsche
organizational
continental
recognition
burst
facilitate
cap
yard
autumn
stiff
transform
undefeated
timing
cac
skipper
smoothly
menem
seychelles
prostitution
contributing
centenary
warring
booked
latvia
submarine
stashed
stripes
displayed
wrote
adrian
#-month-old
qualifiers
sympathy
embarrassment
satisfactory
floodwaters
engage
trick
cables
tabloid
long-stalled
glittering
xi
lockout
fueling
consultative
cppcc
aboriginal
strauss
shipwreck
goldstein
merging
swift
##:##
acres
adopting
gospel
al-aqsa
horns
hingis
wildly
bio
lobbying
coordinator
bg
niagara
whirlwind
soap
tale
desire
fuzzy
herbert
groundwork
merchants
mortgage-backed
freeway
hualien
vna
carnival
cruises
adequately
lina
cross-country
excellent
javelin
caroline
seasonal
tremors
refer
gypsies
raul
brisbane
matchup
alinghi
ransacked
flashpoint
contingency
cramped
brick
dissatisfied
long-range
revelations
erasing
turnout
rifle
recess
uruguayan
sanguinetti
sprinted
nightfall
lap
penny
waterfront
charlie
flies
numerous
bruins
rested
gold-medal
opposite
sabena
revisions
enduring
happily
coincidence
genre
asserted
dolls
inflow
daring
honorable
chairmen
ensured
moldovan
mohamed
pledges
midterm
woodward
chewing
discounts
gender
stephane
first-leg
eat
fda
farming
angels
assembled
envelope
shirley
outpost
basement
massacred
asleep
hut
jabaliya
plundered
loomed
crossroads
franco
argument
sabah
insults
bleeding
deep-sea
tycoons
yachting
disposable
influenced
incomes
exposing
lock
toilet
starbucks
flintoff
kournikova
decrease
highways
andersen
duc
harness
baya
deport
crumbling
indiscipline
bamboo
beatrix
gorazde
shiite-led
freely
greedy
shillings
aussie
brett
foreign-funded
tubing
indian-administered
foil
spike
defamation
preaching
cautioning
paisley
giuliano
juror
yards
carousel
mill
gigantic
capitalist
fritz
academics
maybe
baseman
slugger
quelled
constituency
roy
bennett
cats
disrupting
alternate
jilin
daniilidou
routed
earnhardt
petrochemicals
amato
#,###-mile
motorbike
harlem
x
hawksbill
turtles
starring
roiling
prolonged
medication
sprung
cruyff
eliminating
cholesterol
ana
suriname
safeway
taco
shells
engineered
guillermo
khalifa
al-thani
praying
centre-left
pgr
obrador
treasures
excluding
plantation
pesticide
overhauling
troubling
updates
kasyanov
beheading
a-league
toledo
goa
syndicate
ndrangheta
southernmost
plummeting
pop-up
messaging
crocker
oven
threshold
combing
moussa
arturo
stave
plowed
separation
excerpts
congratulate
formosa
pre
mastermind
zoran
reinforced
feuding
saltwater
shrimp
offenders
wetlands
al-khaleej
jalabert
unc
stojakovic
rivers
d'etat
effects
kong-based
reply
backlash
nigerians
arabic
salaries
a#
revamping
nouri
trustees
urgency
relic
rests
preserved
somewhat
obscure
filipina
shoot-out
bitterly
mickey
mesut
yilmaz
fossilized
skulls
hangzhou
embryonic
ethical
peaks
brent
rocketed
rig
unwanted
advances
abducting
four-shot
ringleader
rogge
billiton
benigno
petar
umbrella
casablanca
wishes
forefront
brain-damaged
double-digit
wrath
well-known
cremated
bullying
barbaric
robbers
calabar
vermont
leaner
incoming
boycotting
instructional
unnecessary
warfare
description
shanghai-based
deck
earliest
serial
seventh-largest
conocophillips
wiping
gym
uh
leon
magnitude-#
prelates
mainframe
inventories
sloan
artworks
gallery
tiebreaking
replacement
julius
scruggs
casamance
forecasters
favorable
hadj
michelin
contemplate
computerized
blackberry
soto
homers
competitor
olson
battle-scarred
mid-air
ranil
wickremesinghe
north-central
dissolving
xiaoping
pile
commended
fahd
abdul-aziz
mid
architects
skipped
waco
davidian
spite
findings
admit
darkest
aired
listeners
al-jazeera
barnett
kinds
disguise
predators
typical
majeure
il
intelligent
emerges
relocate
approximately
uninsured
sergeant
salesman
ross
muddy
andrzej
pap
plotters
barajas
contemporary
poetry
abide
beliefs
notion
solidify
mormon
attackers
minsheng
aaron
mclean
ortega
arch-rival
convey
fuelling
pine
digging
sixteenth
exceeded
experimenting
elephants
doused
urine
greenwich
slipping
graduation
regardless
reinstated
footballer
beaches
recipe
constitute
exempt
landmarks
outokumpu
stainless
brendan
rain-reduced
##-over
balcony
slander
pines
sliding
glaciers
hungry
deepened
amtrak
crush
festivities
culminate
harassing
claudia
schiffer
earl
cisco
boarded
ordering
biography
kwan
realize
thrift
fantastic
negotiation
oh
soaking
hughes
chandra
obstruction
hog
panicked
tune
annika
sorenstam
turner
pro-presidential
beslan
officiated
scratch
forgery
cabinets
visibility
anthem
reclaim
wrongly
jude
oakland
quizzed
freeman
barring
tolerance
owens
overthrew
giorgio
rocca
mutiny
dislodge
venables
newt
gingrich
cellphone
fixed-line
government-backed
guadeloupe
sporadic
swirled
liquefied
waterways
bearing
liaison
earner
ningxia
cricketer
hansie
cronje
rabbi
mercy
accumulate
regard
g-#
detachment
jolo
youtube
hammered
wilt
subsidize
speaks
disparate
pitches
downing
lifestyle
secession
autonomy
grants
advantages
expires
dining
unbeatable
practical
ennis
disabilities
eyed
nightclubs
foxborough
postseason
mls
locals
detain
mitchell
perth
cutoff
quartet
#x###
medley
dresden
no-fly
excluded
smartphones
owen
beijing-based
##k
ata
anti-secession
motherland
laura
davies
one-shot
brigadier
permitted
ariz.
vintage
rushing
stereotype
clara
antivirus
dominance
poking
leicester
circles
changhua
record-high
scandals
sunken
wolfgang
enlist
takeovers
majdanek
accessible
tipped
budding
useful
secretive
vn
portrait
painting
tomb
retreat
contrary
perception
homage
kidder
webber
nurses
collaboration
formulating
shaquille
o'neal
unintended
knockout
edging
unlimited
serb-held
rifkind
leonard
hints
well-worn
novelist
rushdie
faculty
emory
assert
prostitutes
shake-up
zelaya
changchun
pipe
rental
outlets
dressed
unilaterally
maharashtra
#.#-billion
masses
orderly
speaking
stressing
logged
malfunction
clerk
dug
shorten
annexed
avigdor
naira
second-highest
reverend
reggie
tenn.
porter
campaigner
hospice
indurain
unmarked
fiercest
domain
thorny
tallied
intersection
intensifying
pursuing
fargo
auction-rate
needing
headingley
accustomed
phrase
drink
muralitharan
wet
prematurely
bridgestone
realizing
paula
radcliffe
capping
fundamentalists
reina
compare
painted
heckled
month-long
crashes
disengagement
salvaging
minister-elect
defected
mps
desecrated
unfriendly
invite
just-concluded
lai
provoking
outsiders
lean
energy-efficient
unveil
combination
innovative
ishikawa
panasonic
mayors
autocratic
foster
marriages
obstacle
zte
collaborating
chester
yellowstone
wolf
wolves
intestinal
themes
micro
massimo
monte
ducked
contender
commandos
norwest
groundbreaking
locality
startup
swallowing
villiers
raging
plumes
designers
gloom
heats
pockets
trevor
worsens
haze
beit
disenchanted
anti-islamic
anti-piracy
duration
ramirez
resigning
indict
allocation
thabo
mbeki
aleksandr
popov
relaxed
erik
schiphol
kurt
cordial
prime-time
arnaud
berti
anti-syrian
gritty
slums
countryside
fitness
holland
pro-syrian
minister-designate
hernandez
reliever
inns
snapping
cod
quotas
##s
stagnant
likes
shellfish
pinch
four-game
purpose
uncle
jean-bertrand
aristide
diverse
predict
transnational
merchandise
yiau-min
non-ferrous
twenty-five
non-combat
suicides
wanda
overhead
expectation
dissent
bertelsmann
joyful
dear
delighted
hogs
transmitted
chinese-born
convict
constant
aig
scathing
mansion
pause
karen
bestseller
anxiety
rebecca
breach
seven-year-old
aviator
employed
clarke
miserable
three-shot
predrag
supercup
carrie
fisher
dearth
luke
grief
greens
solved
khumalo
concacaf
trafford
etoile
sahel
basked
abolished
moral
rosa
ideal
pregnancy
likelihood
fingerprints
reeves
gyanendra
grab
necessarily
bonner
recoup
acrimony
stagnating
all-party
resident
honing
cadres
gift
distributor
compulsory
funded
jiangsu
inciting
bader
ginsburg
pancreatic
whitney
game-winner
payroll
dawn-to-dusk
freezing
kraft
swarmed
eastward
un-led
lp
monica
lewinsky
vandalized
judaism
rabbis
head-on
celebrates
memorable
stipe
ligament
season-ending
dived
lindsay
davenport
engineers
jeremy
flared
inability
disarming
frightening
incompetent
longstanding
toothpaste
pet
ingredients
hopefuls
sounded
forestry
federica
communism
shores
eliot
spitzer
borrow
gaddafi
gremio
cruzeiro
perceived
canal
cocoa
carving
imclone
bristol-myers
squibb
recycling
northridge
bangguo
avoided
champs-elysees
auditor
six-year
valid
costing
isna
yusuf
raza
gilani
gymnastics
usc
symbolize
tin
oversees
blank
cheque
jane
anorexia
traditionally
espn
academic
liquidity
q
hiking
corners
re-established
beers
archrival
constructing
connect
bihac
keeps
full-size
israeli-palestinian
petty
federico
clinching
bench
slavery
chapters
hooligans
rented
intimidating
drains
viruses
essential
firsthand
benoit
joachim
mt
elastic
prized
humbled
low-lying
surges
elliott
mandaric
strugglers
window
indirect
payrolls
ping
tpc
vigor
outdoor
centennial
cannabis
haotian
readiness
worthy
juarez
strains
russian-american
eight-nation
appetite
eligible
ex-premier
rafiq
exodus
lithuanian
rife
twenty-three
synagogues
contra
carpenter
big-time
hello
restrain
derrick
williamson
punish
viability
settles
gilardino
fiorentina
mention
closed-door
dutch\/shell
sadc
carnage
handheld
reward
punishing
dinkins
kroner
oslo
replaces
behemoth
mills
disagree
topping
mardy
thrilling
entrepreneurs
videotaped
exxon
contradicted
revision
pitchers
mariano
rivera
contraband
artificially
assurance
debit
noting
fomenting
zairean
tutsi
cornerback
jolted
sumatra
webster
evaluating
dispatch
uss
criticizing
belongings
fetched
accountant
antiquities
medium-haul
cumulative
zanzibar
kurmanbek
bakiyev
flicker
grove
ellis
catastrophic
probable
subprime
mortgages
seven-year
major-league
guiding
abdurrahman
wahid
inland
titans
martinez
chee
buyout
brush
packing
anti-communists
lebron
explosives-filled
swat
billionaires
cnbc
counted
maj.
politburo
embrace
horrified
bowed
fabien
locks
nausea
shortness
joins
sorts
avandia
volcanic
ash
splits
flotilla
conning
logan
engines
co-owner
valentine
losers
falun
kate
verdicts
outcry
builders
nicknamed
shine
supermajority
instruments
burying
respondents
safe-haven
innocence
consolidation
newly-elected
prejudice
cease
checking
shirt
sponsorship
treats
hand-picked
katie
shen
zhao
reminding
tables
##-million
laos
babacan
prescott
butler
files
adobe
aftershocks
rodeo
cowboy
laughable
interrogation
ropes
formidable
embezzlement
signals
huber
inched
kia
se
superfund
liability
dispel
mistakes
txu
janos
cancun
irving
pathologist
pupil
labs
archer
daniels
midland
stemming
goalless
romance
integral
dos
gephardt
wrongful
meddle
wrangling
joubert
voluntary
ingredient
brushing
override
purchasing
retaliate
answered
award-winning
burnt
spikes
#-pointer
hawks
amos
curtain
surgeries
cynical
frail
salvo
shelling
counters
paralyzed
outage
ripe
homegrown
harbin
darkness
belonged
implored
hectares
greet
triumphant
convictions
racially
alda
measured
top-rated
pep
sabotage
south-central
skirmish
million-dollar
disqualified
raiders
abruptly
justified
overseer
deadlines
interfere
siemens
jailer
enable
upmarket
macapagal-arroyo
bracing
guatemala
gustavo
kuerten
eliminated
eruption
europeans
flood-hit
escaping
tidal
chronicling
tweed
reunify
goalie
burke
suthep
thaugsuban
roof
anne
transformed
marina
fulfilling
streamed
smiling
casual
paraded
marietta
gymnasium
bagram
ashley
centuries-old
opting
yun
cantor
examiner
homicide
indication
nudged
fault
ample
defrauded
trent
plead
leakage
limped
toshiba
equally
convertible
simms
spleen
sulawesi
vehemently
jianchao
impatient
cabinda
zacarias
moussaoui
denouncing
defiantly
raiding
brothel
candidature
olympiakos
appliances
minorities
african-american
nurture
dying
environmentalists
kent
middle-income
heatwave
celsius
miroslav
slapped
misconduct
philharmonic
herald
chun-hsiung
arose
anti-gay
baluchistan
juergen
klinsmann
shorts
ion
iliescu
lax
lab
donovan
mcnabb
emerge
bud
altercation
cameramen
vanity
blockade
factors
situated
qing
wikileaks
daimler-benz
brave
decent
shutting
enthusiasm
freshly
outfield
shih
eritrean
sco
yulia
tymoshenko
touted
fuels
sneak
xiang
springboard
inches
womens
penal
fanning
slogan
kay
sideline
cosmos
placing
covert
underdog
blackmail
norm
hull
jeb
debuted
day-long
tsunami-hit
#-##
sutton
restraining
alleges
finances
visa-free
extradite
cervical
babcock
g
celje
trickled
batasuna
limbo
memories
multinationals
fifteen
stalinist
yves
dress
brumbies
zbc
armies
ecuadorean
combatants
patriotic
stabilized
bledsoe
hangover
category
badges
four-hour
intimidation
bulldozers
far-reaching
colonial
marcel
cartels
sunrise
angop
urs
heartbreaking
advocate
eelam
ltte
surprises
courted
dent
multibillion
usoc
asthma
hydroelectric
proposing
selebi
washing
suicidal
schooling
echoing
staunch
months-long
mayo
comparable
indicates
regular-season
fuller
insanity
md.
gushing
western-style
ex-communist
figured
cal
islamists
ultimatum
ying
load
graduating
tornado
barreled
astonishing
fury
falsifying
multibillion-dollar
seated
shaukat
contribution
approaches
historically
resettlement
exploding
henrique
ruptured
pointed
correct
budgets
undertaking
eads
reclusive
mandelson
rein
dormitory
delegations
tops
attracting
reebok
sportswear
bamako
addiction
chemistry
grey
picket
spectacle
corinthians
tyrone
downed
ups
beverage
deluge
ominous
near-fatal
classmate
abdul-meguid
kristina
moorilla
tnt
anbar
noted
moratinos
prosperous
harmony
dengue
sickened
five-point
armenian
loosen
slice
fossett
joblessness
fast-moving
cost-cutting
trans
robertson
asians
handsets
arap
moi
substantially
features
crossings
designs
quantities
acceleration
everest
raila
odinga
spearhead
geneva-based
stealing
age-related
raymond
mistaken
sef
buyer
embargo
frequently
es
intimidate
lazy
anti-terror
steam
city-based
revitalized
carla
nintendo
villa
dodge
o'hare
bypass
poisoned
investing
searches
vitas
kid
conquered
freedoms
carmaker
match-fixing
charred
firepower
sputtering
nationalism
liberalization
capturing
jittery
wnba
flagrant
leaked
d'or
charlotte
hornets
installation
chairs
barefoot
listened
reuters
swimmer
equities
mossad
adolf
tabloids
vengeance
demjanjuk
wheelchair
definition
olga
eva
coins
ottoman
verizon
vin
sonics
addressed
etienne
newcomers
budgetary
voicing
norwegians
yen-selling
impressions
craft
superstar
bruno
lisandro
transparent
rower
valuing
stirred
till
dared
stun
slave
kidnappings
abduction
unpunished
condemn
confined
n
siberia
escobar
hoddle
rigor
orphaned
u.
unmee
machu
picchu
janica
thank
concentrated
pour
premises
gloves
dazzled
rumbling
world-famous
mogao
grottoes
dunhuang
statues
ha'aretz
illicit
faa
danica
tenor
assume
post-election
embarrassing
hksar
ink
blix
explanations
warheads
harmless
proclaimed
bodyguard
tight-lipped
hung
shelters
enrich
hard-fought
tournaments
constellation
saturn
stretches
lancang-mekong
sharif
plowing
robbed
hindered
novartis
lurched
alessandro
piero
christianity
holiest
much-needed
convicts
mid-afternoon
strasser
footage
pantani
domination
sit
bering
populist
mufti
sheltered
usefulness
columbus
bombarded
detonate
banker
nmd
gandhi
isiah
whisper
adriatic
ballooning
wee
jong-il
baseless
interrogate
barroso
creates
pits
t.
difficulty
maven
zell
seize
soviets
blazed
exxonmobil
matti
vanhanen
gangsters
loyalists
valladolid
mahinda
fakhruddin
advisors
super-g
handset
entries
shipped
horn
sharpest
apple
koeman
graves
self-defense
ugly
kao
stockpiles
after-hours
worlds
hijack
blowup
lou
hobbled
sadness
spots
shadowy
darkened
leases
oppression
permanently
eli
scorer
reliability
kathy
prodigy
nile
token
inspiring
racked
competence
unified
rap
coasts
#.#-billion-dollar
poaching
caddie
mulling
foiled
daniela
cara
chipmaker
clippers
valery
referees
mapped
full-time
scope
grows
mammoth
bernie
carey
lakeside
hover
##-us
euro##-euro##
neatly
belongs
proceeds
dutchman
vocal
assumption
pretax
atiku
abubakar
vault
hunan
samara
provides
pretext
anwar
six-nation
insect
cambodians
rachel
multilateral
anti-drug
bustling
rocket-propelled
airplanes
at&amp;t
brokerages
aware
test-fired
kerala
cartoon
getaway
lund
mirnyi
record-breaking
consultant
undercut
texans
admonished
overflow
danube
dikes
involves
lessen
discontent
charitable
bulletin
failures
unearthed
remnants
b.c.
forsberg
spectators
shakeup
sofiyanski
cricketers
pride
restricted
concluding
universiade
apologized
compatriot
###cc
mujahedeen
antiques
ornate
warp
faded
banharn
brushed
frosty
suggest
cesare
battisti
battery
haifa
contention
readings
boonen
utilities
ruin
fenway
purchased
creative
strikers
schoolgirl
referred
unruly
bug
treasurer
promotional
episode
nerves
heightened
ital
weddings
females
males
livingstone
worthington
pkk
travels
raises
depend
outlooks
imperative
frederik
donaldson
repaired
substandard
newfound
facts
bahadur
longest-serving
halftime
broadcasters
size
statesman
conductor
eviction
squatters
hanley
cristie
kerr
dzhokar
dudayev
multi-year
leicestershire
kuwait-based
exported
respectively
parallel
showbiz
reconnaissance
marlin
beautiful
graduates
jean-pierre
engagement
mulled
##-day-old
heirs
crying
maxi
defunct
cue
didier
rowing
cancer-causing
francesco
signalled
donating
supermarkets
extraction
sickness
tyco
hilton
philosophy
bass
frontale
eintracht
notoriety
molesting
approving
beaujolais
intellectual
yorkers
shadows
masterminding
stark
ta
semiconductors
connects
intesa
barclays
trader
pattern
initially
fm
ears
crawford
checklist
haunted
bemoaned
projection
equatorial
architect
gehry
diver
##-meter
.###
stops
squid
maori
worsen
alien
hasbro
differing
silk
divisive
foe
copying
center-left
comfortably
paralympic
o'neill
jumbo
akbar
velayati
focussed
mapping
touched
tug
first-time
re-enter
embryos
passes
pre-dawn
acclaimed
yousef
misdemeanor
ii-era
lesson
blasting
recounted
ians
courage
rehearsal
gleaming
loading
annually
barracks
staging
pornography
sizzling
thriller
nods
militancy
psa
unsuspecting
gilberto
basics
identify
peacetime
homosexual
terracotta
captaincy
hears
glitzy
joint-venture
multimillion
enlarged
feasibility
butterfly
chilling
nominate
bildt
stays
endanger
tyler
migration
flame
conn.
#-mile
warwick
sculpture
jayasinghe
umpire
hugh
jacksonville
duel
entitled
nevada
grid
lacks
strangled
cousin
malfunctioned
detected
upstart
embassies
blunt
cds
postponement
highlight
mogadishu
week-long
capitalization
treatments
secrets
##-second
summary
commemorating
tenth
anti-foreigner
high-technology
kozyrev
cooling
huffington
diminutive
notebook
scrutinizing
triathlon
ineligible
frenzy
glue
anymore
dogged
abdominal
##-run
calin
dirty
defenders
fluminense
implants
courtroom
beefed
grumman
tankers
pupils
disappearing
beck
crises
r&amp;b
hip-hop
detection
petraeus
fugitives
glut
oversize
portions
knp
slack
likud
surgeons
braves
nl
contradictory
ignoring
underwater
enforced
dangling
attrition
greeting
dime
overlooking
borrowed
choke
domino
pizza
nestor
encourages
outlaws
smack
liang
denuclearization
pie
conclude
grill
responsibilities
djibouti
experiencing
giancarlo
kharazi
pray
zealander
recipients
stirring
lusaka
donor
smoother
whales
beached
cardboard
overcrowded
astronaut
outer
sculptor
allende
flyover
strolled
portland
kinmen
afraid
kolesnikov
inked
encountered
observing
ariane
horizon
sbc
two-way
giovanni
mahindra
orbiting
insulin
sanofi-aventis
capstone
stranger
nationality
sums
first-division
powerhouses
kph
aces
jurgen
disbelief
molestation
grounding
strapped
#,###-pound
virtual
photographer
mccarthy
representation
screw
impetus
corridors
anywhere
developer
golfers
grounded
consistently
misled
multimillionaire
rowdy
conventions
bruised
elbow
practiced
confidant
rings
thrive
unseen
bounty
tossing
pornographic
everywhere
methanol
telesis
protracted
rifles
penultimate
one-off
studying
creatures
papa
nonproliferation
reunited
overtures
torrid
dunedin
snarl
harmed
jonny
wilkinson
cathay
vaira
jeanne
asafa
belarusian
unfolded
lra
slopes
yoruba
moshood
honey
samarra
arch-foe
clark
'##
pre-race
hobart
mound
rockies
narcotics
modified
harvests
unscathed
unfairly
tape
masked
roaring
mrt
dominate
costly
commons
poorer
circular
estimate
surveys
background
hasina
wajed
authentic
marilyn
stimulate
p.v.
narasimha
rao
emil
catalunya
elimination
larsson
soong
chairmanship
propose
muster
decades-old
aol
herschelle
restoration
livingston
predecessors
salim
kigali
war-scarred
strife-torn
cruised
yorkshire
practicing
anti-influenza
heartened
faaro
dpa
withering
dreamliner
sirens
unconscious
jon
tuition
yates
calcutta
thrashed
rebukes
distinction
cockpit
life-threatening
ole
gap
lancaster
coli
bacteria
deter
californians
well-placed
selecting
covers
loyalty
lille
sainz
caravan
float
conclusions
turbines
batteries
frist
nominees
qiao
enthusiastic
roots
founded
scanners
rothschild
semiconductor
navistar
par-#
brittany
camry
communal
hackers
lindsey
hinder
bucks
#-ball
lazio
elvis
fulfill
obligation
length
gi
cisneros
caspian
fiction
fifth-largest
deporting
upscale
carry-on
gramm
describes
reliable
displaying
fis
quota
steadily
mistake
suffer
super-heavyweight
entrant
stocking
deemed
trouble-free
perry
climatic
landowners
cited
anatoly
nightlife
birdied
invitational
departure
initiated
beattie
injury-time
faults
yu
shyi-kun
breathtaking
limelight
remedial
courses
lie
nails
helmand
jerseys
woody
bougainville
lancet
jia
snorting
yielding
coax
bayrou
worrying
fenech
adami
leaderboard
squeezed
anti-graft
scarlett
totally
forms
fairly
protections
scramble
much-anticipated
carrefour
ryanair
confessed
lejeune
underscored
triggering
abramoff
lobbyist
outing
first-ever
unbelievable
nets
disorder
delve
linate
helms
consignment
mouse
positioned
karamoja
sub-region
whitewater
hanson
pebble
retaliating
chadian
topple
arid
loose
extinguished
dynasties
whites
weakest
universe
ham
persisting
countrywide
late-night
lagging
inspect
speeding
galloping
palermo
martyrs
burial
bakassi
ghost
midst
goats
veterinary
pandas
rene
jericho
accountable
homeowners
muscle
tips
venues
equipped
flatbed
simon
anyang
heineken
course-record
##-under-par
torturing
prestige
ante
gotovina
persecution
canyon
bono
paused
sidewalk
heinz
clues
chun
doo-hwan
medicaid
newton
beneath
ellen
sirleaf
requires
opel
ghanaian
outweighed
adb
akhtar
hopkins
#.#-meter
jin-pyng
afm
dive
pastor
invalid
nun
u.s.-built
grieving
salmon
##-centimeter
complicated
sperm
fiesta
nine-year
glaxosmithkline
vessels
money-losing
zagalo
encounters
ostracized
geoff
jenkins
champ
passion
pill
pudong
froze
invalidated
hewlett-packard
spencer
undisputed
walkout
internet-based
uphill
lit
blackened
anti-missile
caio
hemorrhagic
analysis
low-level
o
whereabouts
bengals
connected
consult
andes
pin
ifc
douglas
car-bomb
postwar
hubei
deportivo
mali
bidder
non-native
connections
##-minute
jumping
sevilla
traian
basescu
adultery
abn
amro
fictional
adoration
terrorizing
rampaging
mouthpiece
disappointed
quitting
##-story
avenue
towers
prayers
k.
shaking
punitive
afc
riordan
phased
detect
boj
detaining
javan
tasikmalaya
##-week
manhunt
liver
stricter
falsified
auditors
fervor
briefed
saturated
mercantile
liege
shaken
dependence
entertainer
frankel
breeders
wrestling
ira
spared
mix
careful
chivas
guadalajara
mwanawasa
pulitzer
palacio
reflected
counterfeit
brazzaville
disarm
disco
waca
useless
sanction
charlton
factional
patty
intend
happen
reservation
gibson
walesa
downplaying
argue
preside
contraction
mini-van
guizhou
guinean
conservancy
attic
trash
territorial
ill-fated
innovations
officals
wading
spinal
lasting
broadcasts
raphael
flirted
unleashing
hajj
provocation
kashmiri
environmentalist
kathryn
camera
occasional
fist
samoud
quantity
spare
tire
grueling
##th-century
treating
despised
romero
flyweight
miss.
plastics
yokozuna
poet
carmen
curling
disbandment
atoms
thinner
breeding
marshall
cementing
nanning
univision
studios
videos
summons
empty
enrico
consolidating
skip
samples
fullback
reformers
gerry
mauresmo
evo
wasted
expelling
rusher
dunn
sprained
merchant
denny
sondheim
fannie
mae
freddie
h#
treason
schedules
rank
insulted
aeronautics
congratulatory
improbable
bypassed
perfect
second-string
notched
culver
scientology
goldberg
cultivation
laid-off
geithner
collins
hearts
enemies
enabling
strange
bust
bottles
shifting
ponting
proliferation
teen-age
accomplice
anti-abortion
mueller
jamaican
audi
short-covering
idle
cinematic
saigon
penguins
requirement
auxerre
sampras
infractions
sentencing
hulk
detective
gays
canterbury
cramming
collective
g-##
uncovered
snapshot
refinery
snags
township
offensives
blitz
manmohan
casualty
ex-lawmaker
lizcano
meditation
nuggets
expatriate
downside
grinding
olympian
devoted
breathe
grassroots
invasive
pleading
staunchly
non-governmental
extremism
located
oncology
modena
prophet
chinese-made
electronically
appraisal
ipod
receives
confidential
state-of-the-art
nagano
fulfilled
fastball
left-hander
ayatollah
proud
slayings
pombo
fleisher
four-month
anelka
inheritance
asserting
organic
reactors
nan
charismatic
cathedral
billowing
davidson
u.k.
####.#
counseling
curfew
chains
sell-off
writedowns
understood
unconventional
emotionally
figueiredo
gymnastic
mornings
concession
normalizing
recreation
anti-semitic
ace
ipo
logs
relevant
overlook
titanic
brains
meltdown
cnooc
human-to-human
exercised
ordinaries
zccm
##.#-million-dollar
nosed
conciliatory
slew
exists
berry
lobbyists
orientation
mou
pirelli
skeet
pusan
benzema
inter-bank
walks
warlords
transitional
robust
fundraisers
marlboro
spilling
reunions
versatile
advil
speedboat
gradually
environment-friendly
michigan
outdoors
eu-wide
liberalize
coke
anmen
foam
nice
ratify
toes
smiled
limbs
re
countless
moshe
katsav
industrials
foray
beefing
kidney
loud
inclusion
wielding
knife
attacker
doug
lowered
quigley
desks
drought-stricken
degree
stockholders
spin
gibran
b-##
reluctantly
importing
shiploads
nebiolo
calais
turbulence
raptors
kelon
adjustment
iger
constitutionality
roofs
grenada
schwab
slots
boom
energetic
u.n.-sponsored
guidelines
garza
juvenile
unconstitutional
ipi
tighter
hardy
reid
likened
rulers
stockpile
den
attraction
inflated
pelota
possessed
household
elie
blindness
cadbury
aerial
pyramids
flotation
flattered
yearly
relaunch
reflection
breck
plentiful
chretien
vince
proclamation
null
dresses
tapes
bronx
scary
paternity
idc
obtaining
careers
founding
lecturer
cinemas
solicited
warships
shouting
disc
denying
blankets
shovel
liberated
psv
slaughtering
zafarullah
jamali
elias
raft
henkel
math
betrayed
responses
throat
unprofor
theodore
viagra
paddy
blessing
tamiflu
trichet
logistic
calvert
hilltop
languages
sse-##
adventurers
nonstop
scooped
entertained
ann
provident
chart
cheese
pedro
compact
regatta
intourist
evert
rejoin
quashed
kvaerner
depth
printing
normalcy
hats
structural
welcoming
one-week
cultures
boi
haque
upside
memorials
deepen
lightning
clijsters
supervisors
layoff
shelf
transsexual
bean
burqas
junichiro
koizumi
t-mobile
herself
shadow
embracing
plaque
jana
wrecking
thrust
removal
tame
turkmen
propaganda
complaining
jalalabad
contamination
zapatero
lineman
bihar
notably
doubtful
livermore
quarrels
unauthorised
charm
shanxi
palmer
der
avian
mourinho
credibility
celebratory
marek
prasad
tag
buddha
keys
interception
haul
axe
maneuvers
ate
romeo
bursting
freshmen
cages
restrained
memo
keane
procurement
tuned
followers
promoter
bounce
eden
channels
diversion
california-based
keen
bundles
maurice
overwhelmed
socialism
schoolteacher
downbeat
drowning
one-two
anti-dumping
waziristan
firmed
fact-finding
allocated
winless
natalie
evil
three-stroke
forgotten
waiters
mead
feat
rear
edgar
rocketing
ashamed
mostar
pays
pixar
gunbattles
fluctuation
skies
jimenez
venezuelans
homework
winston
beckett
launches
gas-rich
boating
automatically
policymakers
pummeled
chevrontexaco
gianni
versace
murray
fielded
abdelaziz
bouteflika
dependent
mathematics
instructed
ahmet
necdet
sezer
lauded
playstation
console
rbi
b-stock
third-seeded
chennai
rout
traveler
swamped
barrels
reviving
granite
grottos
ab
complicate
peasant
websites
supercomputer
lipton
spends
extract
tu
spratly
gilles
panizzi
grabbing
exploiting
multiparty
destabilise
nielsen
##-dec
shatter
largo
clearwater
overruled
doubleheader
refrain
jaroslaw
hoisted
bubble
deadlocked
irish-american
converged
ordeal
rewarded
mii
enraged
repayment
sas
a###m
logistical
fia
steinberg
hamburg
ramzi
totalling
ruihuan
maxim
plain
unfinished
bargaining
excavation
mailing
thessaloniki
crashing
farouq
gunbattle
rung
fat
enjoying
toilets
pm
complications
stockpiled
steroid
components
jermain
worm
driveway
abdoulaye
relinquish
bolivian
prodigies
pot
rainbow
pumped
levi
hypo
resisted
metro-goldwyn-mayer
tents
awoke
interrogating
treasure
substances
layer
swelling
baruch
anxiously
nifty
noxious
suez
barbie
shaun
desk
operatives
choppy
refrigerators
photographed
dismantled
drag
tiananmen
sani
abacha
limousine
hampton
bowlers
listing
platinum
palladium
rolf
wrap
spark
spinner
confession
darko
valujet
inform
farooq
leghari
underwrite
fueled
sum
carpet
classical
summers
hurdle
arcelor
discussion
complicity
colleague
tusk
destiny
klein
restructure
amherst
routinely
ideologue
raffarin
ration
herat
proposes
sandrine
testud
ages
nasser
implicated
michele
deems
buffett
berkshire
shinzo
abe
wellstone
experiment
jackal
blown
inter-american
scholar
dove
ratification
anheuser-busch
goeran
persson
dish
lu
suffolk
whirlpool
vacancies
laureate
-lrb-###-rrb-
###-####
pt
newmont
minahasa
falkland
archipelago
scouts
alain
togolese
santiago
mull
criticisms
racan
schoolboy
biotechnology
lippman
ubl
suits
studied
leveled
epicenter
oversaw
totaling
victorious
downgrades
spider-man
high-flying
harper
cme
derivatives
crunch
unnamed
gearing
soggy
mulls
reunifying
remedies
thrilled
trujillo
suvarnabhumi
take-off
jonas
commonly
tools
mobile-phone
disneyland
beats
rainfall
donned
example
jetblue
baggio
museums
darwin
arrow
limburg
jeans
loss-making
sunlight
all-in-one
awakening
neil
erupting
harrowing
stellar
worshipers
banca
mau
affects
itf
hillside
assertions
feliciano
ba-ca
safest
classmates
su-##
fulham
publicist
ammon
+
reopening
wigan
checked
roiled
jaafari
perilous
ferrera
preserving
mercosur
stroll
dropouts
vocalist
daschle
stool
trades
pan-african
